const unsigned char NN_model[] = { 0x1c, 0x00, 0x00, 0x00, 0x54, 0x46, 0x4c, 0x33, 0x14, 0x00, 0x20, 0x00, 0x1c, 0x00, 0x18, 0x00, 0x14, 0x00, 0x10, 0x00, 0x0c, 0x00, 0x00, 0x00, 0x08, 0x00, 0x04, 0x00, 0x14, 0x00, 0x00, 0x00, 0x1c, 0x00, 0x00, 0x00, 0x98, 0x00, 0x00, 0x00, 0xf0, 0x00, 0x00, 0x00, 0xc4, 0x19, 0x00, 0x00, 0xd4, 0x19, 0x00, 0x00, 0x84, 0x1f, 0x00, 0x00, 0x03, 0x00, 0x00, 0x00, 0x01, 0x00, 0x00, 0x00, 0x10, 0x00, 0x00, 0x00, 0x00, 0x00, 0x0a, 0x00, 0x10, 0x00, 0x0c, 0x00, 0x08, 0x00, 0x04, 0x00, 0x0a, 0x00, 0x00, 0x00, 0x0c, 0x00, 0x00, 0x00, 0x1c, 0x00, 0x00, 0x00, 0x3c, 0x00, 0x00, 0x00, 0x0f, 0x00, 0x00, 0x00, 0x73, 0x65, 0x72, 0x76, 0x69, 0x6e, 0x67, 0x5f, 0x64, 0x65, 0x66, 0x61, 0x75, 0x6c, 0x74, 0x00, 0x01, 0x00, 0x00, 0x00, 0x04, 0x00, 0x00, 0x00, 0x90, 0xff, 0xff, 0xff, 0x0a, 0x00, 0x00, 0x00, 0x04, 0x00, 0x00, 0x00, 0x08, 0x00, 0x00, 0x00, 0x6f, 0x75, 0x74, 0x70, 0x75, 0x74, 0x5f, 0x30, 0x00, 0x00, 0x00, 0x00, 0x01, 0x00, 0x00, 0x00, 0x04, 0x00, 0x00, 0x00, 0x22, 0xe6, 0xff, 0xff, 0x04, 0x00, 0x00, 0x00, 0x0d, 0x00, 0x00, 0x00, 0x69, 0x6e, 0x70, 0x75, 0x74, 0x5f, 0x6c, 0x61, 0x79, 0x65, 0x72, 0x5f, 0x38, 0x00, 0x00, 0x00, 0x02, 0x00, 0x00, 0x00, 0x34, 0x00, 0x00, 0x00, 0x04, 0x00, 0x00, 0x00, 0xdc, 0xff, 0xff, 0xff, 0x0d, 0x00, 0x00, 0x00, 0x04, 0x00, 0x00, 0x00, 0x13, 0x00, 0x00, 0x00, 0x43, 0x4f, 0x4e, 0x56, 0x45, 0x52, 0x53, 0x49, 0x4f, 0x4e, 0x5f, 0x4d, 0x45, 0x54, 0x41, 0x44, 0x41, 0x54, 0x41, 0x00, 0x08, 0x00, 0x0c, 0x00, 0x08, 0x00, 0x04, 0x00, 0x08, 0x00, 0x00, 0x00, 0x0c, 0x00, 0x00, 0x00, 0x04, 0x00, 0x00, 0x00, 0x13, 0x00, 0x00, 0x00, 0x6d, 0x69, 0x6e, 0x5f, 0x72, 0x75, 0x6e, 0x74, 0x69, 0x6d, 0x65, 0x5f, 0x76, 0x65, 0x72, 0x73, 0x69, 0x6f, 0x6e, 0x00, 0x0e, 0x00, 0x00, 0x00, 0xd0, 0x18, 0x00, 0x00, 0xc8, 0x18, 0x00, 0x00, 0xc8, 0x17, 0x00, 0x00, 0xb8, 0x11, 0x00, 0x00, 0x94, 0x11, 0x00, 0x00, 0x54, 0x11, 0x00, 0x00, 0xc4, 0x10, 0x00, 0x00, 0xb4, 0x00, 0x00, 0x00, 0xac, 0x00, 0x00, 0x00, 0xa4, 0x00, 0x00, 0x00, 0x9c, 0x00, 0x00, 0x00, 0x94, 0x00, 0x00, 0x00, 0x74, 0x00, 0x00, 0x00, 0x04, 0x00, 0x00, 0x00, 0xd6, 0xe6, 0xff, 0xff, 0x04, 0x00, 0x00, 0x00, 0x60, 0x00, 0x00, 0x00, 0x10, 0x00, 0x00, 0x00, 0x00, 0x00, 0x00, 0x00, 0x08, 0x00, 0x0e, 0x00, 0x08, 0x00, 0x04, 0x00, 0x08, 0x00, 0x00, 0x00, 0x10, 0x00, 0x00, 0x00, 0x24, 0x00, 0x00, 0x00, 0x00, 0x00, 0x06, 0x00, 0x08, 0x00, 0x04, 0x00, 0x06, 0x00, 0x00, 0x00, 0x04, 0x00, 0x00, 0x00, 0x00, 0x00, 0x00, 0x00, 0x0c, 0x00, 0x18, 0x00, 0x14, 0x00, 0x10, 0x00, 0x0c, 0x00, 0x04, 0x00, 0x0c, 0x00, 0x00, 0x00, 0x81, 0xcb, 0x6b, 0x8d, 0x5a, 0x50, 0x10, 0x4f, 0x02, 0x00, 0x00, 0x00, 0x02, 0x00, 0x00, 0x00, 0x04, 0x00, 0x00, 0x00, 0x06, 0x00, 0x00, 0x00, 0x32, 0x2e, 0x31, 0x37, 0x2e, 0x30, 0x00, 0x00, 0x42, 0xe7, 0xff, 0xff, 0x04, 0x00, 0x00, 0x00, 0x10, 0x00, 0x00, 0x00, 0x31, 0x2e, 0x35, 0x2e, 0x30, 0x00, 0x00, 0x00, 0x00, 0x00, 0x00, 0x00, 0x00, 0x00, 0x00, 0x00, 0x5c, 0xe2, 0xff, 0xff, 0x60, 0xe2, 0xff, 0xff, 0x64, 0xe2, 0xff, 0xff, 0x68, 0xe2, 0xff, 0xff, 0x6e, 0xe7, 0xff, 0xff, 0x04, 0x00, 0x00, 0x00, 0x00, 0x10, 0x00, 0x00, 0x25, 0xb0, 0x75, 0x3f, 0x79, 0xe4, 0x1c, 0xbe, 0x2b, 0x97, 0x4b, 0xbe, 0xef, 0xe5, 0x8c, 0xbe, 0xa8, 0x80, 0x46, 0xbf, 0x1c, 0x16, 0x18, 0xbf, 0x1d, 0x0d, 0x07, 0xbf, 0x75, 0xc1, 0x3e, 0xbe, 0xb1, 0x78, 0x97, 0xbf, 0x50, 0x35, 0x14, 0xc0, 0xad, 0x37, 0x1c, 0xbf, 0x47, 0xd5, 0x73, 0x3f, 0x81, 0xf9, 0x9c, 0x3e, 0xab, 0x97, 0x26, 0x3f, 0xfe, 0x0f, 0xd1, 0x3d, 0x99, 0x31, 0x38, 0xbe, 0x38, 0x62, 0x02, 0xbe, 0x44, 0xd1, 0x28, 0x3e, 0xf0, 0xe3, 0xf5, 0x3c, 0xe2, 0xc0, 0x23, 0xbe, 0x2f, 0xc3, 0xcb, 0xbf, 0x05, 0x22, 0xb4, 0xbf, 0x0c, 0x82, 0x82, 0xbd, 0x6e, 0x9d, 0xbc, 0x3e, 0xbf, 0x0c, 0x3e, 0x3e, 0xe4, 0x38, 0x00, 0x3e, 0xe5, 0xd1, 0x06, 0x3e, 0x44, 0xa5, 0xea, 0x3e, 0xd3, 0x63, 0xde, 0xbd, 0x38, 0x98, 0x06, 0x3f, 0x7b, 0x4c, 0xba, 0x3e, 0x8b, 0xc6, 0x1e, 0x3f, 0x87, 0x2e, 0xc4, 0xc0, 0x12, 0xf7, 0x5c, 0xbd, 0xc7, 0xd4, 0x65, 0xbd, 0x41, 0x25, 0x3c, 0xbd, 0x4d, 0xc7, 0xdc, 0xbd, 0xdf, 0xc8, 0xbf, 0x3e, 0x93, 0x1d, 0x8d, 0x3f, 0x05, 0x8b, 0x77, 0xbe, 0x9e, 0x1b, 0x76, 0x3b, 0x97, 0xdb, 0xc0, 0xbe, 0x18, 0x09, 0x81, 0xbf, 0xe2, 0x90, 0x7c, 0x3f, 0x76, 0xa7, 0xbb, 0x3e, 0x43, 0x85, 0x59, 0x3e, 0x3e, 0x95, 0xb0, 0xbd, 0x1e, 0xe8, 0x13, 0xbd, 0xb3, 0xd0, 0x2e, 0xbe, 0xaa, 0xb6, 0x37, 0x3e, 0x45, 0x66, 0x80, 0xbe, 0xdf, 0x19, 0x81, 0x3c, 0xbb, 0x58, 0x3c, 0x3f, 0xa7, 0xfb, 0x89, 0x3f, 0xb8, 0x8e, 0xf4, 0x3e, 0xd9, 0xeb, 0xfa, 0xbf, 0x25, 0xb5, 0xaf, 0xbb, 0x50, 0x68, 0x9b, 0x3a, 0x43, 0xea, 0xa3, 0x3e, 0xa0, 0xe3, 0x5e, 0xbc, 0x81, 0x5b, 0x08, 0x3f, 0xff, 0x10, 0xc9, 0x3c, 0x66, 0x7b, 0x93, 0x3e, 0xcd, 0x2d, 0x4e, 0x3f, 0xf0, 0x17, 0x0f, 0xbf, 0xaa, 0x73, 0x08, 0xbf, 0xc9, 0xc0, 0x5c, 0xbd, 0x8d, 0x1e, 0xfd, 0x3e, 0xf0, 0x43, 0xf0, 0x3e, 0xde, 0x0b, 0x89, 0x3e, 0xd0, 0x67, 0xbc, 0x3f, 0x76, 0x73, 0xc5, 0x3d, 0x15, 0x31, 0x30, 0x3f, 0x3b, 0x78, 0x1f, 0x3f, 0x21, 0x94, 0x16, 0x3e, 0xd6, 0x99, 0x91, 0x3f, 0x12, 0x89, 0x0a, 0xbe, 0xd6, 0x2a, 0x2b, 0xbf, 0xfe, 0x9b, 0x97, 0xbe, 0x12, 0x4a, 0x89, 0xbe, 0xcd, 0xe5, 0xa2, 0xbe, 0xfe, 0xb0, 0x7e, 0x3e, 0xdc, 0xca, 0x77, 0xbe, 0x92, 0x6b, 0x0f, 0xbf, 0x04, 0x35, 0x79, 0xbe, 0xb8, 0x65, 0xa8, 0x3e, 0x0a, 0xbc, 0x09, 0x3f, 0xfe, 0x22, 0x75, 0xbd, 0x0a, 0x46, 0xb5, 0x3e, 0x39, 0x76, 0x90, 0x3e, 0xd7, 0xce, 0x0c, 0x3e, 0xbf, 0x11, 0x15, 0xbe, 0xe8, 0xd0, 0x40, 0xbc, 0x3a, 0x53, 0x88, 0xbe, 0xe5, 0x39, 0x1a, 0x3f, 0xf6, 0x76, 0x56, 0x3e, 0xba, 0xfb, 0xac, 0xbf, 0x89, 0x54, 0x1a, 0x3e, 0xa2, 0x6b, 0xe0, 0xbd, 0x7f, 0xd1, 0x4e, 0xbf, 0xe7, 0x7b, 0x55, 0x3d, 0x0d, 0xbb, 0xda, 0x3b, 0x73, 0x59, 0x77, 0xbf, 0x8c, 0x7c, 0xb9, 0xbe, 0x21, 0xba, 0x4f, 0xbe, 0xe9, 0xad, 0xe6, 0xbf, 0xf1, 0x75, 0x0b, 0x3e, 0xb0, 0x47, 0x00, 0xc0, 0x45, 0xd6, 0xdf, 0xbe, 0xf9, 0x45, 0x9e, 0xbe, 0x72, 0xb4, 0x1a, 0xbf, 0x1a, 0x0a, 0xd6, 0x3e, 0x57, 0xdc, 0x96, 0xbe, 0x88, 0xc5, 0x59, 0x3d, 0x79, 0xce, 0x90, 0xbe, 0x55, 0x6f, 0x31, 0x3f, 0xd2, 0x25, 0x1b, 0x3f, 0x64, 0x92, 0xfe, 0x3e, 0x99, 0x2f, 0x6b, 0xbe, 0x2f, 0x73, 0xe6, 0x3d, 0x79, 0x2a, 0x3f, 0x3d, 0x95, 0x8b, 0x57, 0xbc, 0xd8, 0x8e, 0x7e, 0x3e, 0xbe, 0x32, 0x34, 0xbe, 0xc5, 0x2e, 0x05, 0x3f, 0x23, 0xa7, 0x83, 0x3e, 0x2f, 0x89, 0xd0, 0xbc, 0x34, 0xdf, 0x8a, 0x3e, 0x0e, 0xd5, 0xcd, 0xbe, 0xef, 0x33, 0x61, 0xbd, 0x37, 0xc8, 0xa2, 0xbe, 0xeb, 0xc6, 0x45, 0x3f, 0x0b, 0x8a, 0xd4, 0x3e, 0x7f, 0xcd, 0x0b, 0x3f, 0xe0, 0xb7, 0x91, 0x3f, 0x25, 0xa3, 0x0a, 0x3f, 0x5b, 0xa4, 0xa0, 0x3f, 0x3c, 0x55, 0xaa, 0xbe, 0x8f, 0xbf, 0x94, 0x3d, 0xca, 0xf0, 0x81, 0x3f, 0x3a, 0x3b, 0xc8, 0xbe, 0xe3, 0x9a, 0x18, 0xbf, 0x63, 0xd5, 0x15, 0xbf, 0x5c, 0xb6, 0x73, 0xbe, 0x6b, 0x48, 0x9a, 0x3e, 0x1b, 0xfe, 0x75, 0xbe, 0xa0, 0xcd, 0xbd, 0x3c, 0xbc, 0x2f, 0x89, 0xbf, 0x8b, 0x00, 0x80, 0x3e, 0xcc, 0x78, 0xec, 0x3e, 0x65, 0xa8, 0xdf, 0xbd, 0x32, 0xa6, 0x4d, 0xbd, 0xc7, 0x40, 0x78, 0x3e, 0x6d, 0x5b, 0x4f, 0xbe, 0xa0, 0x17, 0x28, 0x3e, 0xc3, 0x52, 0x78, 0x3e, 0x1b, 0x70, 0x54, 0x3e, 0x63, 0x27, 0xe2, 0xbe, 0x28, 0xbd, 0xdc, 0x3e, 0x3d, 0x4d, 0x37, 0xbe, 0x23, 0x50, 0x2b, 0xbf, 0x6a, 0x1f, 0x1c, 0xbe, 0x37, 0xaa, 0x96, 0xbd, 0x93, 0x87, 0x84, 0x3e, 0x58, 0x8e, 0x90, 0xbc, 0x3e, 0x55, 0xf8, 0x3e, 0x22, 0x28, 0x8f, 0x3f, 0xde, 0xd8, 0xb8, 0xbe, 0xaa, 0xc9, 0x3e, 0x3f, 0x5f, 0x1d, 0x84, 0x3d, 0xa7, 0xa5, 0x80, 0xbc, 0x87, 0x99, 0xee, 0xbd, 0xe5, 0x36, 0x5b, 0xbf, 0x3d, 0x35, 0x94, 0xbe, 0xa4, 0xc8, 0x31, 0xbf, 0x17, 0xf0, 0x9b, 0x3e, 0x69, 0x2e, 0x95, 0xbe, 0x40, 0x1a, 0xd7, 0xbb, 0xb2, 0xbd, 0x36, 0x3e, 0x7d, 0x69, 0xe0, 0x3d, 0x58, 0x18, 0x9c, 0x3e, 0xc3, 0x18, 0x32, 0x3f, 0xcd, 0x08, 0xa8, 0xbc, 0x39, 0x9a, 0x58, 0x3f, 0xfd, 0xb1, 0x60, 0x3e, 0x7f, 0x5b, 0x2a, 0xbf, 0xce, 0x15, 0x02, 0x3e, 0xc7, 0x4c, 0x51, 0xbe, 0xa6, 0xcb, 0xbe, 0x3e, 0xcc, 0xed, 0x56, 0x3d, 0x54, 0x8b, 0x31, 0x3e, 0x32, 0x60, 0x1f, 0x3f, 0xd2, 0xdd, 0xcb, 0xbe, 0xd9, 0x6f, 0x95, 0xbe, 0xba, 0x97, 0x02, 0xbe, 0xdb, 0x30, 0x34, 0xbe, 0x47, 0xf3, 0x22, 0x3e, 0x7a, 0x09, 0x25, 0x3f, 0x5d, 0x10, 0x84, 0x3f, 0x90, 0xff, 0xe3, 0x3c, 0x27, 0x93, 0x42, 0x3f, 0x79, 0xfe, 0xa8, 0x3d, 0x71, 0x04, 0xc2, 0x3d, 0xc0, 0xbf, 0x98, 0x3f, 0xae, 0xd7, 0x53, 0xbf, 0x45, 0xb5, 0x02, 0xbf, 0x24, 0x00, 0x90, 0xbe, 0xfc, 0xfe, 0x69, 0xbe, 0x61, 0x89, 0x98, 0xbe, 0xc2, 0x86, 0x06, 0x3e, 0x6a, 0x40, 0x8f, 0xbe, 0x03, 0x8a, 0x52, 0xbf, 0xf9, 0x4c, 0x2f, 0xbe, 0x2e, 0x40, 0x63, 0xbe, 0xf8, 0x15, 0x97, 0x3e, 0xd4, 0x70, 0x58, 0x3e, 0x5f, 0x48, 0xe4, 0x3e, 0x09, 0xef, 0x83, 0xbc, 0x49, 0x3b, 0x47, 0xbe, 0x50, 0x04, 0xf8, 0x3d, 0x47, 0xdb, 0xe5, 0xbd, 0x4a, 0x19, 0xd8, 0x3d, 0xb1, 0xce, 0x29, 0x3e, 0x0e, 0x3b, 0x19, 0xbe, 0xf0, 0xd5, 0x95, 0x3d, 0x5f, 0xab, 0x6b, 0xbe, 0xfc, 0xee, 0x25, 0x3f, 0xe7, 0x1a, 0x14, 0xc0, 0x39, 0x48, 0x6e, 0x3e, 0x59, 0x8d, 0x5d, 0xbe, 0x45, 0x90, 0xf0, 0xbd, 0x63, 0xff, 0x62, 0xbe, 0x2e, 0xd6, 0x93, 0xbe, 0x8a, 0xc2, 0x4d, 0x3e, 0xb5, 0xf1, 0x21, 0x3e, 0x00, 0xd9, 0x83, 0xbf, 0x3b, 0x23, 0x16, 0xbe, 0x78, 0xb1, 0x90, 0x3e, 0xb9, 0xaf, 0xf1, 0x3e, 0xde, 0x95, 0x00, 0xbe, 0xd9, 0xd2, 0x94, 0xbe, 0x90, 0x14, 0xf6, 0x3c, 0x32, 0xc0, 0x07, 0x3e, 0xc0, 0xd3, 0xae, 0x3e, 0x3d, 0x66, 0x0d, 0xbf, 0xe3, 0x16, 0x9a, 0xbe, 0xb5, 0xde, 0x63, 0xbe, 0x4a, 0xe4, 0x88, 0xbf, 0x8e, 0xb6, 0x0c, 0x3d, 0xb6, 0x27, 0xe8, 0x3d, 0xca, 0x5e, 0x9e, 0xb9, 0xd2, 0x49, 0xa5, 0xbb, 0x28, 0xd3, 0x1c, 0x3d, 0xeb, 0x75, 0x33, 0x3f, 0x5e, 0x52, 0x39, 0xbf, 0xd0, 0x92, 0x06, 0xbf, 0xc8, 0xec, 0x17, 0xbe, 0xc2, 0x9a, 0xdf, 0x3e, 0xf3, 0xac, 0x5c, 0xbd, 0x96, 0x51, 0x65, 0xbf, 0xd0, 0x54, 0x8e, 0x3f, 0xde, 0x4c, 0x90, 0xbe, 0x56, 0xe1, 0x29, 0xbf, 0xd1, 0x38, 0x97, 0xbd, 0x6c, 0x34, 0x48, 0xbf, 0x88, 0xf1, 0x9f, 0x3f, 0x7c, 0x9e, 0x8e, 0x3e, 0x38, 0x34, 0xf9, 0xbe, 0xea, 0xf8, 0xe8, 0xbe, 0x17, 0xaa, 0x05, 0x3f, 0x2e, 0x8e, 0x66, 0xbf, 0x55, 0xaf, 0xe9, 0x3d, 0xf4, 0xd4, 0x31, 0x3f, 0x7a, 0x3a, 0x0a, 0xbe, 0x58, 0xa3, 0x6a, 0xbe, 0x02, 0x62, 0xab, 0x3f, 0x86, 0x04, 0xcf, 0x3d, 0xce, 0x98, 0xd8, 0x3e, 0x5e, 0xa2, 0xc7, 0x3e, 0x21, 0x5a, 0x8b, 0xbb, 0x94, 0x34, 0xc9, 0x3e, 0x2a, 0x5a, 0xfc, 0xbf, 0xf1, 0xa1, 0xde, 0x3c, 0x81, 0xd9, 0x51, 0xbe, 0xc3, 0x3e, 0x88, 0x3d, 0x0b, 0xdd, 0x7a, 0x3d, 0xdb, 0xf9, 0x89, 0xbe, 0xe0, 0xa1, 0x06, 0x3e, 0xf4, 0x94, 0xa0, 0x3e, 0x25, 0xba, 0xb3, 0x3e, 0xbd, 0x26, 0x3d, 0xbe, 0xbd, 0x94, 0x82, 0xc0, 0xca, 0x82, 0x86, 0x3f, 0xbf, 0xfe, 0x8e, 0xbe, 0xa5, 0x58, 0x74, 0xbf, 0x37, 0xe9, 0x52, 0x3d, 0xa1, 0xa0, 0xec, 0xbf, 0x9a, 0x17, 0x6e, 0x3d, 0x36, 0xcb, 0x8e, 0x3e, 0x12, 0xf4, 0xfa, 0xbe, 0xc9, 0x5b, 0x0d, 0x3e, 0x89, 0x1a, 0x01, 0x3f, 0x82, 0x96, 0xd6, 0x3e, 0x59, 0xdf, 0x27, 0x3d, 0x1d, 0x40, 0x09, 0x3f, 0x04, 0x1a, 0x26, 0xbe, 0x50, 0x2e, 0x6e, 0xbd, 0x01, 0x3e, 0xdd, 0x3f, 0xf4, 0xe9, 0x56, 0x3f, 0xfd, 0xed, 0x5e, 0x3f, 0x9e, 0x9d, 0x34, 0xbc, 0x91, 0xd2, 0xf7, 0x3d, 0x80, 0x92, 0x89, 0x39, 0x40, 0xa5, 0x5f, 0x3e, 0xeb, 0x10, 0x51, 0xbe, 0x10, 0x04, 0x97, 0xbe, 0x3e, 0xd2, 0xc9, 0x3e, 0x17, 0x81, 0x35, 0x3f, 0xad, 0x25, 0x9e, 0x3b, 0xce, 0x59, 0x0a, 0x3e, 0xb0, 0x3f, 0x48, 0xbe, 0x26, 0x2d, 0xbb, 0xbe, 0x88, 0xf2, 0x00, 0xbe, 0xbf, 0xf2, 0xca, 0xbd, 0x25, 0x9a, 0x5a, 0xbf, 0xb4, 0x87, 0x10, 0x3f, 0xc1, 0xce, 0xaf, 0x3f, 0xe6, 0xc6, 0xff, 0xbc, 0x04, 0x88, 0x6e, 0xbe, 0x6e, 0xeb, 0xc3, 0xbe, 0xa6, 0x5b, 0xb3, 0xbe, 0xe6, 0xc3, 0xac, 0x3d, 0x80, 0x73, 0xc5, 0xbc, 0x24, 0xa5, 0x8d, 0xbe, 0xd2, 0x78, 0x8b, 0x3e, 0x34, 0xd1, 0x5d, 0x3e, 0x07, 0xd2, 0x79, 0x3e, 0x7f, 0x72, 0x2b, 0xbe, 0x20, 0x45, 0x44, 0xbc, 0xd4, 0x39, 0x87, 0xbe, 0x73, 0x8b, 0xe8, 0x3e, 0xcc, 0xe8, 0x42, 0x3f, 0x2e, 0xae, 0x42, 0x3f, 0xe1, 0xf3, 0x58, 0x3e, 0xb2, 0x3d, 0x8c, 0x3d, 0x72, 0x09, 0xb4, 0x3c, 0x54, 0xa3, 0xcb, 0xbd, 0x21, 0xa9, 0xe4, 0xbd, 0x2b, 0x6e, 0x3e, 0xbe, 0x21, 0x50, 0x92, 0x3f, 0x4a, 0x0f, 0x0f, 0xbf, 0x1d, 0x0b, 0x6b, 0xbe, 0x7c, 0x71, 0xfe, 0xba, 0x36, 0xcc, 0x7f, 0xbd, 0x96, 0x5a, 0x8f, 0xbd, 0x2a, 0xb0, 0x3c, 0xbe, 0x7f, 0xb7, 0x9a, 0xbe, 0xf0, 0x90, 0x9f, 0x3e, 0x8e, 0x26, 0x0a, 0x3f, 0x5c, 0x4a, 0x89, 0xbe, 0x51, 0x25, 0x4f, 0xbf, 0xbe, 0x9e, 0xaf, 0xbf, 0x3a, 0xaa, 0x9f, 0xbe, 0xf9, 0xe1, 0x21, 0x3d, 0xa7, 0x34, 0xc5, 0xbe, 0xf4, 0x17, 0x7b, 0xbe, 0x7d, 0xb1, 0x60, 0xbe, 0xf6, 0x66, 0xbf, 0x3e, 0xf8, 0x37, 0x92, 0xbe, 0xff, 0xde, 0x9b, 0x3e, 0x05, 0x63, 0x81, 0x3e, 0x2a, 0xe5, 0x3e, 0xbd, 0x85, 0x2c, 0x08, 0x3f, 0x0e, 0xbd, 0xb7, 0xbe, 0x2c, 0x02, 0x2d, 0x3e, 0xd9, 0xb3, 0x1d, 0x3e, 0x5a, 0xe1, 0x24, 0x3e, 0x4e, 0xe2, 0x67, 0xbe, 0xb5, 0xbf, 0x7f, 0xbe, 0x49, 0x47, 0x83, 0x3e, 0x25, 0x4e, 0x15, 0x3e, 0x02, 0xe7, 0xdb, 0x3e, 0xd5, 0xa6, 0x2c, 0xbe, 0x69, 0x6e, 0x48, 0x3e, 0x4c, 0x77, 0x20, 0x3e, 0x63, 0x86, 0x4d, 0x3e, 0x29, 0xee, 0x01, 0x3e, 0xb6, 0x44, 0x78, 0xbf, 0x04, 0x1d, 0x90, 0xbe, 0xe1, 0x98, 0x1b, 0xbe, 0x88, 0x93, 0xd9, 0xbe, 0x9f, 0x7c, 0xa2, 0xbd, 0x4a, 0x08, 0xe2, 0xbe, 0xbd, 0xf5, 0xa0, 0xbd, 0x69, 0x49, 0x50, 0xbe, 0xa1, 0xdc, 0x6f, 0xbf, 0xe0, 0xfe, 0x4e, 0x3e, 0xee, 0x76, 0x3f, 0x3c, 0xeb, 0x32, 0x93, 0x3d, 0xc8, 0x49, 0x64, 0x3d, 0x6c, 0x19, 0x3e, 0x3e, 0x60, 0x2e, 0x3c, 0xbc, 0xc9, 0x8a, 0x89, 0xbe, 0xfc, 0xf2, 0x1a, 0x3e, 0x19, 0x46, 0xab, 0xbf, 0xb0, 0xb2, 0x2f, 0xbf, 0x41, 0x63, 0x1b, 0xbf, 0x2b, 0x31, 0x32, 0xbe, 0x48, 0x23, 0x35, 0x3e, 0xd6, 0x86, 0x14, 0x3f, 0xda, 0x21, 0xa9, 0x3e, 0x2c, 0xa1, 0x27, 0xbe, 0x28, 0x51, 0x5a, 0x3d, 0xf8, 0x73, 0xd8, 0x3e, 0x80, 0xa5, 0xa4, 0xbe, 0x4a, 0xa0, 0xbc, 0xbe, 0xdf, 0xb7, 0xc4, 0x3f, 0x34, 0xcf, 0xf9, 0xbd, 0xdf, 0xe9, 0x82, 0x3e, 0x52, 0x97, 0x6c, 0xbf, 0xa1, 0xb1, 0x84, 0x3d, 0xce, 0x75, 0x6f, 0xbc, 0x3b, 0x87, 0xeb, 0xbe, 0xad, 0xc4, 0x09, 0xbf, 0x03, 0xb8, 0x85, 0xc0, 0x8d, 0xeb, 0x33, 0x3f, 0x0e, 0xe7, 0xe1, 0x3b, 0xa6, 0xff, 0xf1, 0xbf, 0x20, 0x27, 0x37, 0xbe, 0x1c, 0x2a, 0x19, 0x3e, 0x36, 0x0c, 0x45, 0x3e, 0x21, 0xab, 0xb9, 0x3d, 0xb0, 0xc8, 0x8a, 0xbe, 0x30, 0x7f, 0x49, 0x3d, 0xa6, 0x8c, 0xde, 0xbd, 0xfe, 0x10, 0xc6, 0xbe, 0x71, 0x30, 0x10, 0xbd, 0x30, 0x76, 0x58, 0x3e, 0xf6, 0x45, 0xb9, 0x3e, 0x7c, 0x9e, 0xab, 0xbf, 0x7d, 0x5d, 0x17, 0xbe, 0xb1, 0x9e, 0xb9, 0x3e, 0x59, 0x8d, 0xb5, 0xbd, 0x39, 0xc0, 0x59, 0x3e, 0xc2, 0xe0, 0xb9, 0x3e, 0x82, 0xf3, 0x2f, 0x3e, 0x7a, 0xa5, 0xb1, 0x3d, 0xc8, 0x30, 0xfa, 0xbf, 0xef, 0x12, 0x23, 0x3e, 0xdf, 0x44, 0xe5, 0x3e, 0xfd, 0xcd, 0xa1, 0x3d, 0x84, 0x57, 0xa9, 0xbf, 0x26, 0x11, 0x0d, 0xbf, 0xf2, 0x0e, 0x7d, 0xbe, 0xe4, 0x3a, 0xb4, 0xbf, 0xfd, 0x88, 0x9a, 0xbe, 0x92, 0x55, 0x35, 0xbf, 0x85, 0xb4, 0x66, 0xbf, 0xdb, 0x80, 0xfa, 0xbe, 0xaf, 0x25, 0xf5, 0xbf, 0x4d, 0x1e, 0x93, 0x3f, 0x84, 0x14, 0x54, 0x3e, 0x39, 0x38, 0x77, 0x3f, 0x0d, 0xd7, 0xba, 0x3d, 0x74, 0x75, 0x0e, 0x3e, 0x92, 0x8d, 0x8c, 0xbe, 0x3a, 0xc6, 0x8e, 0xbe, 0x14, 0x7a, 0x03, 0x3f, 0x00, 0x5d, 0x9c, 0xbf, 0x08, 0x67, 0x15, 0xbf, 0xdd, 0x36, 0x00, 0xbf, 0x69, 0x96, 0xa1, 0xbe, 0x6f, 0xcc, 0xbf, 0x3e, 0x1d, 0xfb, 0x96, 0x3e, 0x03, 0xef, 0x80, 0xbd, 0x16, 0x26, 0x80, 0xbe, 0xf9, 0xe5, 0xa8, 0x3d, 0x19, 0x37, 0xb5, 0x3e, 0x3b, 0x96, 0x8e, 0xbe, 0x62, 0xf3, 0xe3, 0x3e, 0x0b, 0x67, 0x79, 0xbe, 0xa3, 0x1c, 0x0b, 0x3f, 0x93, 0x36, 0xea, 0xbe, 0xe4, 0x26, 0x9d, 0xbf, 0xe7, 0xfd, 0xe3, 0x3d, 0xf6, 0x59, 0xe2, 0x3d, 0x99, 0xab, 0x97, 0xbe, 0x5e, 0x4c, 0x64, 0x3e, 0xf0, 0x6d, 0xc2, 0xbf, 0x08, 0xc8, 0x19, 0xc0, 0x87, 0x53, 0xb7, 0x3d, 0x5e, 0x18, 0x15, 0x3f, 0x42, 0x6c, 0x3a, 0x3e, 0xde, 0xba, 0xcc, 0x3e, 0xa0, 0x6e, 0xed, 0x3e, 0x38, 0x21, 0x46, 0x3e, 0x49, 0xa0, 0xef, 0xbd, 0x68, 0xfa, 0x1c, 0x3d, 0x72, 0x63, 0x5a, 0x3e, 0xfc, 0xb8, 0x47, 0xbe, 0x66, 0x13, 0x01, 0x3f, 0x75, 0x41, 0xab, 0x3e, 0x71, 0xbb, 0x35, 0x3c, 0xf1, 0x56, 0xae, 0x3e, 0x8f, 0xb8, 0x07, 0x3d, 0x18, 0xa3, 0x9a, 0xbf, 0xd5, 0x7e, 0x86, 0x3e, 0xd1, 0x1f, 0x66, 0xbe, 0x68, 0x6b, 0x7d, 0x3e, 0x18, 0x4b, 0xe9, 0xbf, 0x28, 0x8b, 0x9d, 0x3c, 0x13, 0xfd, 0xd9, 0x3e, 0x12, 0x8b, 0x69, 0xbf, 0x68, 0x70, 0x9b, 0xbf, 0xb0, 0xb7, 0xcd, 0xbd, 0xd1, 0x45, 0x3a, 0x3f, 0x13, 0xf9, 0x25, 0xbf, 0x75, 0x84, 0x00, 0xbe, 0x87, 0x4e, 0x3e, 0x3f, 0x92, 0xf2, 0x52, 0x3e, 0x4c, 0xb2, 0x34, 0x3f, 0x91, 0xbb, 0x87, 0x3d, 0x74, 0xd9, 0x8b, 0xbd, 0xb2, 0xca, 0x60, 0x3f, 0xf1, 0x33, 0xb8, 0xbe, 0xcf, 0xef, 0xaa, 0xbd, 0xd8, 0x07, 0x1f, 0x3e, 0x76, 0x60, 0xf3, 0x3e, 0x2a, 0x6c, 0xf6, 0xbe, 0x49, 0x4e, 0x55, 0xbe, 0x3b, 0xe9, 0x1b, 0xbe, 0x95, 0xa0, 0x2e, 0xbf, 0xb7, 0x86, 0xa0, 0x3e, 0x22, 0x1d, 0xd7, 0x3d, 0x8a, 0x9d, 0x0a, 0xbf, 0x8d, 0x3b, 0x92, 0xbe, 0x4a, 0xde, 0xa2, 0x3e, 0xb9, 0x75, 0xb9, 0xbe, 0x6a, 0x87, 0xb0, 0xbf, 0x98, 0xe2, 0x93, 0x3e, 0xb7, 0xfe, 0xbc, 0x3e, 0x6c, 0x14, 0x06, 0xbf, 0xdc, 0xbd, 0xe7, 0x3e, 0xca, 0x22, 0xb1, 0xbf, 0xfa, 0xe4, 0xea, 0xbe, 0xb5, 0xa6, 0x84, 0xbe, 0x9f, 0x29, 0x43, 0xbe, 0x6b, 0x99, 0xc2, 0xbd, 0x2d, 0x82, 0x04, 0x3f, 0x56, 0x92, 0x5e, 0x3e, 0x56, 0xc6, 0x96, 0x3d, 0x92, 0x4f, 0x8e, 0xbe, 0x88, 0x86, 0xe6, 0x3d, 0x84, 0x97, 0x64, 0x3e, 0xa4, 0xd3, 0xb6, 0xbd, 0x13, 0x86, 0x33, 0xbe, 0xe1, 0x3b, 0x14, 0xbd, 0xe8, 0xe7, 0xd5, 0xbd, 0x1c, 0x8a, 0x49, 0xbc, 0x58, 0xa6, 0x3f, 0xbe, 0x63, 0x80, 0xf7, 0x3b, 0x58, 0x31, 0x41, 0xbe, 0xb2, 0xf2, 0x6f, 0x3e, 0xca, 0x45, 0xe8, 0x3e, 0x0d, 0x26, 0xb2, 0xbe, 0x45, 0xa6, 0xeb, 0x3e, 0xa9, 0x7f, 0xdc, 0x3e, 0xda, 0x7d, 0x13, 0xbf, 0x45, 0xfc, 0x34, 0x3e, 0x21, 0xa9, 0x42, 0x3f, 0xa5, 0x13, 0xfa, 0x3c, 0x5c, 0xf2, 0x58, 0xbe, 0xe2, 0x62, 0x21, 0xbb, 0xac, 0xc5, 0x80, 0x3e, 0x32, 0x49, 0x26, 0xbf, 0x90, 0x77, 0xa4, 0x3b, 0xa5, 0xb7, 0x85, 0x3f, 0x75, 0xa6, 0xd5, 0x3d, 0x2b, 0xcf, 0x6b, 0x3e, 0xf2, 0x50, 0xc5, 0xbf, 0x7e, 0x3d, 0xfb, 0xbf, 0x34, 0x1b, 0xd2, 0xbe, 0x49, 0x21, 0xc0, 0xbf, 0xa4, 0xd8, 0xee, 0xbe, 0x58, 0xc1, 0xa0, 0xc0, 0x8e, 0xe7, 0xf9, 0xbe, 0x1d, 0x0a, 0x06, 0xbe, 0xf7, 0xf8, 0xc3, 0xc0, 0xfb, 0xd9, 0x49, 0x3e, 0x7e, 0xd9, 0x8a, 0xbe, 0xad, 0xf4, 0xa1, 0x3e, 0x3b, 0x77, 0x46, 0xbe, 0x39, 0x7c, 0x72, 0x3e, 0x80, 0x54, 0x7b, 0xbb, 0x00, 0x94, 0x96, 0xba, 0x67, 0x05, 0x14, 0xbe, 0x8c, 0x09, 0x2e, 0xbd, 0xdc, 0xd9, 0x07, 0xbe, 0x33, 0x44, 0x68, 0xbc, 0xaf, 0x1c, 0x47, 0x3b, 0xcf, 0xf7, 0x0d, 0x3e, 0xcb, 0x97, 0x81, 0x3e, 0xde, 0xc0, 0x9d, 0x3d, 0x36, 0x98, 0xc6, 0xbd, 0x5f, 0x4e, 0x86, 0x3e, 0xae, 0x28, 0x13, 0x3f, 0x09, 0x12, 0x16, 0x3e, 0xf5, 0xcc, 0xec, 0x3e, 0x05, 0xa6, 0xe1, 0xbf, 0x30, 0xe4, 0xa9, 0x3e, 0x8d, 0xfe, 0xa7, 0x3e, 0x72, 0xa7, 0x08, 0x3f, 0x28, 0x9e, 0x5e, 0xbf, 0x06, 0xbd, 0x8a, 0xbe, 0x86, 0xc1, 0x8f, 0xbe, 0xa3, 0x35, 0xdf, 0x3d, 0xca, 0xea, 0x15, 0xbc, 0xe4, 0x62, 0xa5, 0x3e, 0x54, 0x3b, 0x9a, 0x3b, 0xf6, 0x2e, 0xa7, 0xbe, 0xc4, 0x2f, 0x1d, 0x3f, 0x41, 0x24, 0xcf, 0xbe, 0x5d, 0x87, 0xed, 0x3e, 0x4c, 0xc6, 0x24, 0x3e, 0xf2, 0x84, 0xa7, 0xbe, 0xd0, 0x37, 0xc5, 0x3d, 0x28, 0x15, 0xa1, 0x3d, 0x2d, 0x04, 0x2a, 0xbf, 0x1b, 0xd4, 0xd8, 0x3e, 0x55, 0x6a, 0x70, 0x3e, 0x27, 0x87, 0xce, 0x3c, 0x61, 0xd8, 0xe0, 0x3d, 0xc7, 0x9e, 0x7a, 0xbd, 0x39, 0xba, 0x47, 0x3d, 0x27, 0xa1, 0xf0, 0xbf, 0xe1, 0x8a, 0xfd, 0xbe, 0xe1, 0x0a, 0x2a, 0xbf, 0xaf, 0xb4, 0x38, 0x3f, 0xa7, 0xdb, 0x34, 0xbf, 0xe1, 0x37, 0x0b, 0xbf, 0x3a, 0x19, 0x3b, 0xc0, 0x23, 0xfa, 0xdb, 0xbe, 0xd4, 0xb4, 0x2a, 0xbe, 0xc5, 0x9e, 0x3e, 0x3f, 0x12, 0xc0, 0x32, 0x3f, 0xc3, 0x44, 0x0c, 0xbe, 0xc4, 0xc4, 0xb7, 0x3f, 0xf6, 0xf1, 0x1a, 0x3f, 0x78, 0xcb, 0x74, 0x3f, 0x5e, 0x1b, 0xaf, 0xbe, 0xc5, 0x3b, 0x5b, 0xbe, 0xe4, 0xc3, 0xc5, 0x3f, 0xb6, 0xfe, 0xe7, 0x3e, 0x74, 0xe4, 0xdc, 0xbe, 0xfe, 0x43, 0x90, 0x3e, 0x4f, 0x42, 0xe8, 0x3e, 0x72, 0xc6, 0x92, 0x3e, 0xbf, 0x32, 0x38, 0xbe, 0xce, 0x56, 0xa5, 0xbd, 0x0a, 0x3e, 0x14, 0xbf, 0xf8, 0xe1, 0xe4, 0x3d, 0x7b, 0xbe, 0xed, 0x3e, 0xd3, 0x88, 0x45, 0x3e, 0x35, 0xb7, 0xbf, 0x3d, 0xa0, 0xa3, 0xfc, 0xbd, 0x80, 0xfe, 0xb3, 0xbe, 0x1e, 0x5f, 0xa7, 0x3e, 0x50, 0xfd, 0xa1, 0x3e, 0x46, 0x0f, 0xe7, 0x3e, 0xc5, 0x48, 0x51, 0x3f, 0x55, 0xa7, 0x0d, 0xbe, 0x98, 0x80, 0xc6, 0x3e, 0x92, 0xe8, 0x9b, 0x3f, 0x36, 0x53, 0x20, 0xbe, 0x61, 0x6f, 0x8a, 0xbd, 0xe1, 0xbf, 0xe9, 0x3e, 0x1e, 0xae, 0xe0, 0x3e, 0x80, 0x37, 0xff, 0xbe, 0xff, 0x62, 0xc8, 0xbf, 0x84, 0x16, 0xd2, 0x3e, 0x12, 0x89, 0x6a, 0x3c, 0x20, 0x10, 0x5b, 0x3f, 0xde, 0xb0, 0x93, 0x3d, 0x38, 0x77, 0xc1, 0xbf, 0x0e, 0xd0, 0xaf, 0x3e, 0x14, 0x91, 0xbf, 0xbd, 0x5d, 0xd4, 0x05, 0x3f, 0xde, 0x9f, 0x27, 0x3c, 0x16, 0x03, 0x26, 0x3f, 0xf2, 0xf2, 0x83, 0xbe, 0x2c, 0x28, 0x1a, 0xbe, 0xc3, 0x3e, 0x21, 0x3f, 0x64, 0x2b, 0x14, 0xc0, 0x0f, 0x8c, 0xaf, 0xbf, 0x24, 0x10, 0x87, 0x3e, 0xff, 0xfc, 0x78, 0x3e, 0xe5, 0xd5, 0x82, 0x3d, 0xd2, 0x27, 0xab, 0xbe, 0xcf, 0x7c, 0x44, 0x3e, 0xd7, 0xe9, 0x27, 0x3f, 0x34, 0x4f, 0x24, 0xbf, 0xde, 0xc8, 0x79, 0x3e, 0xf0, 0xe5, 0x38, 0x3f, 0x53, 0xf1, 0x0e, 0x3d, 0xd6, 0xb1, 0x1c, 0xbf, 0x3d, 0x47, 0xc8, 0x3e, 0xcf, 0x91, 0xe8, 0xbe, 0x2d, 0x36, 0x26, 0x3f, 0x98, 0x07, 0xc8, 0xbc, 0xed, 0x6e, 0x46, 0x3e, 0xcd, 0x4b, 0x4e, 0x3f, 0x64, 0xd7, 0xfe, 0x3e, 0x80, 0xea, 0xa5, 0x3f, 0xea, 0xcc, 0x77, 0x3e, 0xc4, 0xec, 0x9d, 0x3d, 0x59, 0xd5, 0xc6, 0x3f, 0xd0, 0x47, 0xbb, 0xbe, 0x15, 0xcd, 0x34, 0xbf, 0x3c, 0xd9, 0x91, 0xbf, 0xbd, 0xcb, 0x68, 0xbf, 0x51, 0xdb, 0x52, 0xbf, 0xde, 0x72, 0x48, 0x3e, 0x41, 0x0f, 0x96, 0x3e, 0xb5, 0xe6, 0x79, 0xbf, 0xa3, 0xab, 0xcb, 0x3e, 0xec, 0x6a, 0x48, 0x3d, 0x91, 0x26, 0x34, 0xbe, 0x23, 0x3b, 0x22, 0x3f, 0x59, 0x4a, 0x12, 0xbe, 0x52, 0x9e, 0x69, 0xbd, 0xdf, 0xfa, 0xd9, 0xbe, 0x0e, 0x51, 0x0e, 0x3f, 0xed, 0x58, 0xba, 0xbd, 0x68, 0xa2, 0x6e, 0xbf, 0x9f, 0xef, 0x59, 0x3e, 0xc0, 0x26, 0xb5, 0xbf, 0xf6, 0xef, 0xc3, 0xbd, 0xc9, 0x5b, 0x38, 0x3f, 0xe8, 0x88, 0xe9, 0x3a, 0x01, 0x66, 0x28, 0xbd, 0x30, 0x3f, 0x7f, 0xbf, 0x6c, 0x85, 0xc2, 0xbc, 0xef, 0xff, 0x50, 0x3f, 0x40, 0x6c, 0x73, 0xbc, 0x2c, 0x73, 0x05, 0x3f, 0xd2, 0x46, 0xc5, 0x3e, 0x3e, 0xdc, 0x39, 0xbf, 0x4a, 0xe8, 0xc3, 0xbe, 0x2a, 0x0d, 0x44, 0xbe, 0x40, 0xc2, 0xe8, 0xbd, 0xf5, 0x44, 0x56, 0x3e, 0xb0, 0x63, 0x4f, 0xbd, 0x38, 0x3a, 0x65, 0xbd, 0x40, 0x77, 0x5f, 0xbc, 0xb4, 0x03, 0xa5, 0x3d, 0x7e, 0xf5, 0x75, 0xbe, 0x9e, 0xaa, 0xf7, 0x3e, 0x8a, 0x7b, 0x43, 0x3f, 0x4c, 0x63, 0x28, 0x3f, 0x7d, 0x00, 0x31, 0x3f, 0x23, 0x51, 0x33, 0xbf, 0xac, 0xd6, 0x14, 0xbf, 0xad, 0xc6, 0x87, 0xbf, 0xa1, 0xd4, 0x8d, 0x3e, 0xc1, 0xde, 0x4a, 0xbf, 0x28, 0x79, 0x00, 0x3e, 0xc2, 0x41, 0x11, 0xbf, 0x23, 0x38, 0x94, 0xbe, 0x38, 0x8e, 0xe8, 0x3f, 0x96, 0xd5, 0xa3, 0x3d, 0x17, 0xdb, 0x46, 0xbe, 0x38, 0xab, 0x2b, 0x3f, 0x07, 0x81, 0x96, 0xbf, 0x61, 0xd9, 0xbe, 0xbe, 0x2a, 0x73, 0x0a, 0xbe, 0xcb, 0xe5, 0x89, 0xbd, 0xcf, 0xfd, 0x7c, 0x3e, 0x0d, 0x93, 0x19, 0xbb, 0x76, 0x1f, 0xae, 0x3e, 0x3f, 0x90, 0x26, 0xc0, 0x6e, 0xe1, 0x06, 0x3f, 0x7f, 0x71, 0x3a, 0xbd, 0x93, 0x94, 0xe8, 0x3b, 0xfa, 0x38, 0x27, 0x3e, 0xb0, 0xff, 0xcb, 0x3e, 0xe0, 0x52, 0x31, 0x3d, 0xbb, 0x91, 0x8a, 0x3e, 0xfd, 0xc2, 0x0c, 0x3f, 0x7a, 0x48, 0x79, 0x3e, 0xf1, 0x81, 0xb0, 0x3e, 0x53, 0x4e, 0x06, 0x3f, 0xae, 0x50, 0xd4, 0xbe, 0x76, 0x3c, 0xb4, 0xbe, 0xab, 0x0f, 0xbe, 0xbe, 0xc5, 0x9a, 0x4d, 0xbe, 0x50, 0xb0, 0x27, 0x3f, 0x11, 0x73, 0x04, 0xbf, 0x01, 0xa8, 0x52, 0xbf, 0x7a, 0xb8, 0xed, 0x3e, 0x50, 0x7c, 0x61, 0x3e, 0x59, 0xda, 0xa9, 0x3f, 0x0c, 0xb6, 0x8d, 0xbd, 0x72, 0xb2, 0x80, 0x3d, 0x5b, 0x13, 0xd5, 0x3e, 0xf4, 0x27, 0xd6, 0x3e, 0xd3, 0x5f, 0x45, 0xbe, 0x6a, 0xf8, 0x89, 0xbf, 0xcc, 0xea, 0x00, 0x3f, 0x6b, 0xdd, 0x7c, 0xbf, 0x0d, 0xe9, 0x67, 0x3f, 0x2d, 0xd6, 0xa2, 0xbd, 0x1e, 0x2e, 0x6b, 0xbf, 0x0e, 0x24, 0xba, 0x3e, 0xe4, 0x40, 0x36, 0x3e, 0xfb, 0x95, 0x45, 0x3e, 0x4a, 0x62, 0x87, 0x3e, 0xdf, 0xd5, 0x58, 0x3f, 0xc4, 0xc3, 0x2f, 0x3e, 0x0b, 0x15, 0x17, 0xbe, 0x11, 0x6e, 0x88, 0x3f, 0xab, 0x60, 0xed, 0xbe, 0x5e, 0x72, 0xaf, 0xbf, 0x82, 0x86, 0x1e, 0xbe, 0x43, 0xce, 0x57, 0x3e, 0x99, 0xb7, 0x4a, 0x3d, 0x6e, 0xe6, 0xaf, 0x3e, 0x7a, 0x11, 0x8b, 0xbe, 0x5d, 0x54, 0x3f, 0x3e, 0xf1, 0xe3, 0x28, 0xbd, 0x74, 0xcd, 0xbc, 0x3e, 0x45, 0x4f, 0x65, 0x3e, 0xf6, 0xee, 0xe8, 0x3d, 0x38, 0x57, 0x2f, 0x3f, 0xf8, 0x2c, 0x99, 0xbd, 0x28, 0x9b, 0x8a, 0x3e, 0x0f, 0x73, 0x1b, 0xbf, 0x13, 0x8c, 0xa9, 0x3e, 0xb1, 0x02, 0x6d, 0x3e, 0x1a, 0xe5, 0x0f, 0xbd, 0x76, 0x10, 0xd4, 0x3e, 0x87, 0xb4, 0x79, 0x3d, 0x82, 0xd6, 0xe0, 0xbc, 0xeb, 0xdb, 0xad, 0x3e, 0xc4, 0x6d, 0x5d, 0x3e, 0xf0, 0x88, 0x0d, 0xbf, 0x63, 0xbf, 0x30, 0xbe, 0x66, 0x0a, 0xca, 0xbe, 0x8e, 0x61, 0x99, 0x3e, 0xb8, 0xb4, 0x04, 0xbd, 0x05, 0x99, 0x4a, 0xbe, 0xdc, 0xc9, 0x07, 0x3e, 0x06, 0xc1, 0xde, 0xbe, 0x73, 0x9a, 0x1f, 0xbf, 0x36, 0x76, 0x1e, 0xbf, 0xfe, 0xd6, 0xe3, 0x3e, 0x7b, 0x95, 0x6e, 0xbf, 0xd2, 0x97, 0xb3, 0x3e, 0x5e, 0x5a, 0x32, 0x3f, 0x88, 0xd4, 0x58, 0xbe, 0x3b, 0xfa, 0xf1, 0xbc, 0x14, 0x32, 0xc6, 0xbe, 0x9d, 0x61, 0x33, 0x3e, 0x89, 0x56, 0x37, 0xbd, 0xcc, 0x84, 0x5e, 0xbe, 0x53, 0xa7, 0x81, 0x3f, 0x86, 0x77, 0xfe, 0xbd, 0x21, 0x36, 0xec, 0x3d, 0xfa, 0x4d, 0x62, 0x3f, 0x8d, 0x37, 0x14, 0x3f, 0x87, 0xa6, 0x54, 0xbe, 0x8f, 0x41, 0xb9, 0xbf, 0x14, 0xfa, 0xfa, 0x3e, 0x80, 0x73, 0x9e, 0x3c, 0xc9, 0x4c, 0x36, 0x3f, 0x04, 0xa2, 0xc8, 0xbd, 0x49, 0xca, 0xf3, 0xbf, 0xc2, 0xea, 0x11, 0xbf, 0xb1, 0x7d, 0x63, 0xbe, 0x29, 0x81, 0x79, 0xbe, 0xd2, 0x7c, 0x49, 0xbe, 0xcd, 0x45, 0x1f, 0x3f, 0x2a, 0x80, 0x11, 0x3e, 0xd5, 0x1e, 0x61, 0xbe, 0xfd, 0x52, 0x1e, 0x3f, 0x55, 0x9c, 0x52, 0xbd, 0x42, 0xc5, 0xf2, 0xbf, 0x07, 0x97, 0xd6, 0xbe, 0x30, 0xe1, 0x1e, 0x3f, 0xf4, 0x3b, 0xbe, 0xbe, 0x64, 0x4a, 0x44, 0x3e, 0x48, 0x9e, 0x15, 0xbe, 0xda, 0x0a, 0x19, 0x3f, 0x4b, 0x56, 0x8c, 0xbe, 0xf6, 0xd5, 0xbb, 0x3e, 0x52, 0x80, 0x15, 0x3f, 0x22, 0x20, 0x18, 0x3f, 0x03, 0xb4, 0x9b, 0xbf, 0x43, 0x0e, 0x33, 0x3e, 0xce, 0x1c, 0x0f, 0x3d, 0x2e, 0x75, 0x3b, 0xbf, 0x48, 0xc0, 0x2b, 0xbf, 0xe6, 0xa1, 0x20, 0x3f, 0xcf, 0x0f, 0x4b, 0x3f, 0x9e, 0x87, 0x93, 0xbe, 0x7d, 0x8d, 0x77, 0x3e, 0x7c, 0x6f, 0xd6, 0xbf, 0xd0, 0xbd, 0x33, 0xbe, 0x62, 0x80, 0x98, 0xbf, 0x25, 0x5d, 0x59, 0xbf, 0xad, 0x39, 0xd8, 0xbe, 0x7f, 0x73, 0x91, 0xbd, 0x6a, 0x25, 0xc0, 0x3e, 0xca, 0xd2, 0xba, 0xbe, 0x03, 0x54, 0x90, 0x3e, 0x88, 0xc2, 0x42, 0xbd, 0xc7, 0x37, 0x9f, 0x3e, 0x5c, 0xd5, 0x42, 0x3f, 0x15, 0x62, 0xed, 0x3d, 0xd8, 0x19, 0xe0, 0x3d, 0xdd, 0x19, 0x1a, 0x3e, 0x4b, 0xb3, 0x39, 0xbe, 0x7b, 0x6d, 0x01, 0x3f, 0x93, 0xd3, 0xa6, 0x3e, 0x9c, 0xd7, 0xf5, 0xbd, 0x0b, 0xa7, 0x00, 0x3f, 0xd1, 0xd4, 0x8c, 0x3f, 0xc7, 0x98, 0xd4, 0xbd, 0xa9, 0x46, 0x61, 0x3f, 0xa5, 0x70, 0x89, 0x3f, 0x5c, 0x87, 0xfe, 0x3e, 0xc2, 0xfb, 0x9b, 0x3e, 0x8c, 0xbb, 0x97, 0xc0, 0x55, 0x96, 0xe1, 0x3e, 0x7d, 0x29, 0x18, 0xbf, 0x53, 0x58, 0xba, 0xbf, 0x36, 0xab, 0xc0, 0xbe, 0xfd, 0xf1, 0xa0, 0xc0, 0xa2, 0x0a, 0x57, 0x3f, 0x9f, 0x2c, 0x9a, 0xbe, 0xf0, 0xa7, 0xe3, 0xc0, 0x86, 0x5d, 0x91, 0xbd, 0x45, 0x1c, 0xbf, 0x3e, 0x9d, 0xfa, 0xb7, 0x3e, 0x7d, 0x93, 0x9e, 0x3d, 0xd1, 0xfc, 0x03, 0x3f, 0x90, 0x0e, 0x9f, 0x3d, 0x68, 0x2c, 0xeb, 0xbd, 0x7a, 0x6d, 0x1d, 0xbe, 0x29, 0x9c, 0x0e, 0xbf, 0x88, 0x12, 0xe1, 0xbd, 0x28, 0x6a, 0x2d, 0xbe, 0x41, 0x59, 0x44, 0xbc, 0xe7, 0x9f, 0x47, 0x3e, 0x46, 0x93, 0x11, 0xbe, 0x9d, 0xf7, 0x4c, 0x3c, 0xe7, 0xf2, 0x8b, 0xbe, 0x5f, 0xfa, 0x87, 0x3e, 0x4a, 0x82, 0xea, 0x3e, 0x01, 0xf9, 0x03, 0x3c, 0xb7, 0xd7, 0x2b, 0x3f, 0xd9, 0x58, 0xa9, 0xbf, 0xe5, 0xa6, 0x8f, 0xbd, 0xd8, 0x53, 0x4e, 0x3e, 0x45, 0x9b, 0x16, 0xbe, 0x5d, 0x61, 0xa9, 0xbe, 0x29, 0xc6, 0xd9, 0x3e, 0x79, 0xba, 0x84, 0x3f, 0x41, 0x06, 0xb1, 0xbe, 0xe0, 0x7e, 0x41, 0x3f, 0x33, 0xfe, 0xf3, 0x3c, 0x1c, 0xcc, 0x91, 0x3e, 0x93, 0x8f, 0x64, 0x3f, 0x32, 0x8c, 0x94, 0xbf, 0x43, 0x05, 0x3e, 0xbf, 0x77, 0xe8, 0x25, 0xbf, 0xcf, 0x36, 0xbc, 0xbe, 0x52, 0x02, 0x80, 0xbf, 0xa6, 0xd6, 0x93, 0xbd, 0x04, 0x07, 0xcd, 0x3d, 0xbf, 0xf7, 0x3b, 0xbf, 0x64, 0xa0, 0x52, 0xbd, 0xe7, 0xf0, 0x3e, 0x3e, 0xf7, 0xbf, 0x6c, 0xbd, 0xbb, 0x45, 0xa1, 0x3e, 0x4c, 0xbc, 0x27, 0x3e, 0x89, 0xec, 0x02, 0xbe, 0xcd, 0xbf, 0x9d, 0x3e, 0x22, 0xd2, 0x0f, 0x3e, 0x38, 0xa5, 0x83, 0xbd, 0x06, 0xa1, 0xbb, 0xbe, 0xbe, 0xf5, 0x20, 0xbf, 0x2f, 0xf4, 0x18, 0xbe, 0x77, 0x50, 0xbb, 0xbf, 0x35, 0xe2, 0xc6, 0xbd, 0x95, 0x82, 0xe7, 0xbd, 0xde, 0x7c, 0x8d, 0xbf, 0x5c, 0x38, 0xfa, 0xba, 0xa3, 0xa3, 0x99, 0x3d, 0xb2, 0x7e, 0xfa, 0xbe, 0x2e, 0x2d, 0x4c, 0xbe, 0x74, 0xda, 0x34, 0xbf, 0x9c, 0x75, 0xaa, 0xbf, 0xa0, 0xdb, 0x55, 0x3e, 0x74, 0x0b, 0x01, 0xc0, 0x93, 0xd8, 0x02, 0xbf, 0xf2, 0x08, 0xc2, 0xbe, 0x1c, 0x6f, 0x81, 0xbf, 0x7a, 0x2f, 0x3b, 0xbd, 0x6d, 0xa5, 0x38, 0xbf, 0xd1, 0x23, 0x9b, 0x3e, 0x0a, 0xe4, 0x61, 0x3e, 0xc5, 0xb7, 0x63, 0x3e, 0x90, 0x6d, 0x2b, 0x3f, 0xff, 0x8c, 0xfa, 0x3e, 0x76, 0xd1, 0x55, 0x3e, 0x76, 0x19, 0xeb, 0x3e, 0x9e, 0x46, 0xd5, 0x3e, 0x01, 0x68, 0xa4, 0xbd, 0xf0, 0x12, 0x14, 0x3e, 0x02, 0x34, 0xa9, 0xbe, 0x9f, 0x2a, 0xf5, 0x3e, 0xd2, 0xb5, 0x10, 0xbf, 0x87, 0x87, 0xea, 0xbe, 0xe1, 0x46, 0xda, 0xbf, 0x7a, 0xf7, 0xff, 0xff, 0x04, 0x00, 0x00, 0x00, 0x80, 0x00, 0x00, 0x00, 0x34, 0x2c, 0x97, 0x3c, 0x07, 0x13, 0x5e, 0x3d, 0x5a, 0x37, 0x23, 0x3d, 0xa6, 0x33, 0x00, 0x3d, 0xff, 0xc3, 0x56, 0x3d, 0x59, 0x6e, 0x3f, 0x3d, 0x50, 0x3c, 0x9d, 0x3d, 0xfe, 0xd6, 0x55, 0x3e, 0x1d, 0x11, 0x11, 0xbe, 0xec, 0xa5, 0x5c, 0xbe, 0x87, 0xec, 0xb0, 0x3d, 0x47, 0xfc, 0x55, 0x3c, 0xcc, 0x8f, 0x22, 0xbc, 0x6d, 0x86, 0xb9, 0x3d, 0xa5, 0xa3, 0x7d, 0xbd, 0x70, 0xa8, 0x1f, 0xbe, 0x97, 0x0f, 0x1a, 0x3d, 0x37, 0x3a, 0xf3, 0x3b, 0x90, 0x44, 0x01, 0xbd, 0x27, 0x0f, 0x96, 0x3c, 0xc8, 0x77, 0x14, 0x3c, 0xcb, 0x7b, 0x2d, 0xbc, 0x33, 0x75, 0xb9, 0x3d, 0xf9, 0xfe, 0x87, 0x3d, 0xd6, 0x81, 0x2a, 0xbe, 0xea, 0x14, 0x11, 0xbe, 0x44, 0x50, 0x83, 0x3d, 0xc3, 0xdb, 0xdc, 0x3c, 0x64, 0xab, 0x23, 0x3e, 0xe8, 0x13, 0x99, 0xbd, 0x62, 0xc7, 0x39, 0x3e, 0xa3, 0x39, 0x6a, 0x3e, 0x06, 0xf8, 0xff, 0xff, 0x04, 0x00, 0x00, 0x00, 0x30, 0x00, 0x00, 0x00, 0xda, 0x71, 0x0a, 0xbd, 0x77, 0xb3, 0x46, 0x3c, 0x4b, 0x8e, 0x45, 0x3e, 0x79, 0xc9, 0x8c, 0x3c, 0x0b, 0xf4, 0xa1, 0x3d, 0x75, 0x81, 0x14, 0x3e, 0x7f, 0xfa, 0xc2, 0x3e, 0x37, 0xb4, 0x2d, 0xbc, 0xfd, 0x7b, 0xa9, 0x3d, 0x89, 0x12, 0x24, 0xbc, 0x1e, 0xe9, 0x7d, 0x3e, 0x5d, 0x59, 0x5f, 0x3e, 0x42, 0xf8, 0xff, 0xff, 0x04, 0x00, 0x00, 0x00, 0x14, 0x00, 0x00, 0x00, 0xd1, 0x8b, 0x93, 0xbd, 0xb2, 0x99, 0xa4, 0x3c, 0xc3, 0xe0, 0x89, 0xbe, 0x05, 0xda, 0x84, 0xbe, 0x35, 0x83, 0x0e, 0x3f, 0x62, 0xf8, 0xff, 0xff, 0x04, 0x00, 0x00, 0x00, 0x00, 0x06, 0x00, 0x00, 0x3c, 0x29, 0x31, 0xbf, 0x29, 0xe0, 0xd8, 0x3c, 0x16, 0x4b, 0x86, 0xbd, 0x66, 0x44, 0x88, 0xbe, 0x21, 0xf8, 0x17, 0xbd, 0x00, 0x0d, 0x00, 0x3f, 0x36, 0x27, 0xb3, 0x3e, 0x64, 0x26, 0x05, 0xbf, 0x69, 0xa3, 0xd2, 0x3e, 0x40, 0x96, 0x46, 0x3f, 0xc0, 0x60, 0xbc, 0xbe, 0xf4, 0x1b, 0x03, 0x3e, 0xde, 0xff, 0x44, 0xbd, 0xcb, 0xe6, 0x4b, 0x3e, 0x39, 0x03, 0x19, 0x3c, 0x84, 0x2b, 0x27, 0xbf, 0x32, 0x67, 0xb5, 0xbf, 0x2e, 0x69, 0x0c, 0xbf, 0xa9, 0x04, 0x56, 0x3f, 0x5c, 0xe3, 0x6f, 0x3f, 0xbe, 0xac, 0x3a, 0xbe, 0x9d, 0x02, 0x53, 0x3f, 0x6f, 0xb0, 0xfe, 0x3e, 0x5c, 0x54, 0xad, 0x3d, 0x58, 0x91, 0x5f, 0x3f, 0x65, 0xbb, 0xb0, 0x3e, 0x8d, 0xe5, 0xf4, 0x3d, 0x2a, 0x82, 0x80, 0x3f, 0x2a, 0x69, 0x67, 0x3c, 0xec, 0xd3, 0x98, 0x3f, 0x22, 0x19, 0x4e, 0x3e, 0x3d, 0xbb, 0x88, 0xbe, 0xc4, 0xd0, 0x99, 0xbf, 0x78, 0x63, 0xc1, 0xbd, 0x14, 0xc4, 0x07, 0x3f, 0x62, 0xc6, 0x29, 0xbd, 0x65, 0xef, 0x69, 0x3e, 0xe9, 0x0b, 0xa5, 0xbe, 0x2d, 0x29, 0xd5, 0x3e, 0x96, 0x23, 0xe3, 0xbd, 0xbb, 0x2e, 0xd9, 0x3e, 0x88, 0xa2, 0xd1, 0x3e, 0x05, 0xe6, 0x07, 0xbf, 0x94, 0xe2, 0x78, 0xbe, 0xae, 0xdb, 0x6f, 0x3e, 0xc0, 0x6a, 0x1c, 0xbf, 0xc5, 0xce, 0x1a, 0x3f, 0x6d, 0xe9, 0x71, 0x3e, 0xee, 0x5f, 0xc7, 0xbf, 0x29, 0x25, 0xeb, 0x3d, 0xce, 0x50, 0xcc, 0x3d, 0xbd, 0x6a, 0x88, 0xbe, 0x93, 0xdc, 0x49, 0x3e, 0x35, 0xfd, 0x24, 0x3f, 0x74, 0x03, 0xd2, 0xbe, 0x4a, 0x1c, 0x74, 0xbf, 0xa0, 0x85, 0x25, 0x3f, 0xb4, 0x3f, 0x1d, 0x3f, 0xf4, 0xac, 0x28, 0x3f, 0xf2, 0x6e, 0xeb, 0x3e, 0x78, 0xfa, 0x05, 0x3d, 0x46, 0x87, 0x94, 0x3c, 0xa2, 0x7c, 0x07, 0xbf, 0x48, 0xc5, 0xa0, 0xbf, 0xaa, 0x3d, 0x6e, 0xbe, 0x6a, 0x6d, 0xf0, 0x3e, 0xd9, 0x2b, 0xa6, 0x3d, 0xc0, 0x7b, 0x1e, 0x3f, 0x17, 0x60, 0xcb, 0x3e, 0x21, 0x51, 0x16, 0x3f, 0xc6, 0x88, 0x25, 0xbe, 0xc9, 0xa9, 0x73, 0x3e, 0x50, 0xd5, 0xc7, 0x3e, 0xb3, 0x6e, 0x0a, 0xbe, 0xc1, 0x24, 0xed, 0x3d, 0x93, 0x59, 0x0a, 0xbe, 0x15, 0xbe, 0xaf, 0xbe, 0xa7, 0x4c, 0xb0, 0xbd, 0x67, 0x73, 0x93, 0xbe, 0xc0, 0x34, 0x94, 0x3e, 0xee, 0x53, 0x85, 0x3f, 0xbd, 0x4f, 0x0d, 0x3e, 0xfe, 0x62, 0x92, 0xbe, 0x32, 0x34, 0xaa, 0xbe, 0xff, 0x34, 0x37, 0x3f, 0xed, 0xb9, 0x90, 0x3d, 0x2e, 0x6d, 0xc8, 0x3d, 0x48, 0x5e, 0x8d, 0xbd, 0xc5, 0x09, 0x43, 0x3e, 0xb8, 0x44, 0x67, 0xbe, 0x80, 0xaf, 0x8b, 0xbe, 0x9c, 0xbd, 0x7d, 0x3e, 0xe7, 0x56, 0xef, 0xbd, 0xe8, 0x4e, 0x52, 0x3c, 0x55, 0x6f, 0x21, 0x3e, 0x7b, 0x55, 0xae, 0x3c, 0x4b, 0xd2, 0x0a, 0x3d, 0xe3, 0x47, 0x59, 0x3e, 0x0d, 0xba, 0xb1, 0xbe, 0x1b, 0x4e, 0x09, 0x3e, 0x2b, 0xbe, 0x0c, 0xbf, 0x74, 0xa0, 0xb7, 0xbd, 0xd9, 0xf6, 0x53, 0xbe, 0x3b, 0x88, 0x94, 0xbd, 0x5f, 0x0b, 0xab, 0x3e, 0xc0, 0xb2, 0xa3, 0x3d, 0x50, 0x46, 0x55, 0xbd, 0x37, 0xcb, 0x6e, 0xbe, 0xb2, 0x8b, 0xaf, 0xba, 0xc9, 0x3d, 0x46, 0xbe, 0x82, 0xba, 0x64, 0xbe, 0xb9, 0xcb, 0x75, 0xbe, 0x99, 0x19, 0xdd, 0x3e, 0x48, 0xf7, 0xb0, 0x3e, 0x00, 0x92, 0xc4, 0x3d, 0x6a, 0xda, 0x99, 0x3c, 0x82, 0x44, 0x11, 0xbe, 0xbb, 0x4c, 0x3b, 0xbd, 0x44, 0xc0, 0xa8, 0xbe, 0xd7, 0x0b, 0x0b, 0xbf, 0x98, 0x86, 0x75, 0xbc, 0x7c, 0x4b, 0x66, 0xbe, 0x59, 0x51, 0x89, 0x3d, 0xe4, 0x5e, 0x90, 0x3e, 0xc0, 0x90, 0x95, 0x3d, 0xba, 0x96, 0x80, 0xbe, 0xa0, 0x0e, 0x0f, 0xbe, 0x2d, 0x14, 0xc2, 0x3e, 0x7f, 0x76, 0x05, 0x3f, 0x42, 0x6d, 0x31, 0xbf, 0x7e, 0xff, 0x49, 0x3e, 0x75, 0x0b, 0x20, 0x3e, 0x77, 0x6c, 0x95, 0x3e, 0x1a, 0x0d, 0xca, 0x3e, 0x86, 0xa7, 0x14, 0x3e, 0x13, 0x74, 0x2b, 0x3f, 0xeb, 0x1e, 0xc0, 0x3e, 0x3e, 0x54, 0x97, 0x3d, 0xcf, 0xbe, 0x70, 0xbf, 0x80, 0xda, 0x1f, 0x3e, 0xac, 0xd1, 0xd8, 0x3d, 0x52, 0xa3, 0x86, 0x3f, 0x25, 0xa7, 0x11, 0x3e, 0x8c, 0xa2, 0xb5, 0x3f, 0x1b, 0xb4, 0x6b, 0x3f, 0xd4, 0x5b, 0x06, 0x3f, 0xcd, 0x98, 0xf3, 0xbd, 0x08, 0x0d, 0xfb, 0xbf, 0xe7, 0x48, 0x33, 0xbf, 0xe5, 0x98, 0xed, 0x3d, 0x29, 0x99, 0x9a, 0xbe, 0x04, 0x75, 0xf9, 0xbe, 0x2d, 0xb3, 0x4d, 0x3c, 0x7a, 0xdd, 0x3b, 0xbe, 0x1c, 0x2e, 0x84, 0x3d, 0x13, 0xb5, 0x4a, 0xbd, 0x1f, 0x02, 0xae, 0x3e, 0xb3, 0xfe, 0x72, 0x3b, 0x0c, 0x85, 0xc6, 0x3e, 0xdc, 0xc6, 0x7b, 0x3f, 0xa2, 0x72, 0x2d, 0x3e, 0x5c, 0x12, 0x2d, 0xbf, 0x8e, 0x8d, 0xdb, 0xbe, 0xb2, 0xbc, 0x8f, 0x3e, 0x4b, 0x73, 0xac, 0x3d, 0x3f, 0x3c, 0xa9, 0x3d, 0xf9, 0x50, 0xbe, 0x3e, 0x62, 0x58, 0x35, 0x3f, 0xcd, 0x8c, 0xaa, 0x3e, 0x23, 0xca, 0x1f, 0x3f, 0xab, 0xbe, 0x6d, 0xbf, 0x97, 0xa2, 0x14, 0x3e, 0x54, 0xe9, 0xe3, 0xbd, 0x44, 0xe8, 0x52, 0x3f, 0x9e, 0x6f, 0x55, 0x3e, 0xb8, 0xd9, 0xba, 0x3f, 0x17, 0x68, 0x42, 0x3f, 0x9c, 0x7d, 0xf5, 0x3e, 0xec, 0x12, 0x05, 0x3f, 0x6e, 0xcb, 0x8e, 0xbf, 0x38, 0xa4, 0x95, 0xbf, 0x69, 0x6d, 0x9e, 0xbe, 0xbf, 0x7c, 0x46, 0xbf, 0xa3, 0x8f, 0x6c, 0xbf, 0xaa, 0x0e, 0x18, 0xbf, 0x7b, 0x60, 0x7c, 0xbe, 0x7b, 0x88, 0x2c, 0x3e, 0x72, 0xd9, 0x85, 0xbe, 0x91, 0x39, 0xf3, 0x3e, 0x4f, 0xb5, 0x18, 0x3f, 0xae, 0x46, 0xcd, 0x3e, 0x3c, 0xda, 0x75, 0x3f, 0x23, 0x95, 0x03, 0x3e, 0x0c, 0x86, 0x3d, 0x3f, 0x33, 0x15, 0x52, 0x3f, 0xb0, 0x57, 0xc0, 0xbe, 0x47, 0x8c, 0x13, 0x3d, 0x3a, 0x44, 0x2d, 0x3e, 0x64, 0xaa, 0xb3, 0x3e, 0x2c, 0x5d, 0x05, 0xbe, 0xaf, 0xee, 0x0e, 0xbc, 0x99, 0x5d, 0x8d, 0xbf, 0xae, 0xf7, 0x89, 0x3f, 0xb0, 0x6d, 0xf4, 0xbd, 0x65, 0xec, 0x48, 0x3d, 0x7d, 0x72, 0x2c, 0xbf, 0xd1, 0xba, 0x24, 0xbe, 0x62, 0x40, 0x8b, 0xbe, 0x1d, 0xd2, 0x20, 0x3f, 0xef, 0x97, 0xbd, 0x3e, 0x97, 0xa5, 0x05, 0xc0, 0xf8, 0x85, 0x3b, 0x3e, 0xdf, 0xca, 0x30, 0x3f, 0x04, 0x64, 0x96, 0xbf, 0x42, 0x24, 0x37, 0x3f, 0x5a, 0xb7, 0x1a, 0x3f, 0x5b, 0xb6, 0x5d, 0xbf, 0x33, 0xab, 0x00, 0xbf, 0xd6, 0x5b, 0x8c, 0x3e, 0xdd, 0xda, 0x5e, 0xbf, 0xc5, 0xba, 0x34, 0x3e, 0x94, 0xdf, 0x15, 0xc0, 0x37, 0xce, 0xbd, 0x3e, 0x8b, 0x00, 0xa7, 0x3e, 0x52, 0x52, 0x63, 0x3f, 0x8b, 0x55, 0xd1, 0xbd, 0xa0, 0x03, 0x35, 0xbf, 0x96, 0x65, 0xec, 0x3e, 0x5e, 0x0b, 0x8d, 0xbe, 0x73, 0x9f, 0x67, 0x3e, 0xf8, 0x63, 0xd4, 0xbd, 0x1b, 0xc8, 0x42, 0x3c, 0x69, 0x92, 0xf5, 0x3e, 0x76, 0x3c, 0x4c, 0x3f, 0xed, 0x7f, 0x61, 0xbe, 0xf8, 0xcd, 0xf9, 0x3d, 0x5a, 0xa8, 0x80, 0x3e, 0xc8, 0x2b, 0x0b, 0x3f, 0x3d, 0x4f, 0xd8, 0x3e, 0xad, 0x6f, 0x0f, 0x3f, 0xa4, 0xf0, 0xf7, 0xbe, 0x8b, 0xd3, 0xd8, 0x3d, 0x77, 0xf7, 0xa7, 0x3f, 0xdf, 0x2a, 0x00, 0xbf, 0x1f, 0x6d, 0xa2, 0xbf, 0x92, 0xa7, 0x20, 0x3e, 0x1b, 0x58, 0x07, 0xbf, 0x42, 0x3f, 0x1e, 0xbf, 0xd8, 0x17, 0xbe, 0x3c, 0xc5, 0x47, 0x89, 0x3e, 0xc1, 0x79, 0x97, 0x3e, 0x4d, 0x7f, 0x6c, 0x3f, 0x05, 0x1a, 0x3f, 0x3f, 0x0c, 0xf5, 0xc2, 0x3f, 0x97, 0x97, 0x8b, 0xbd, 0xe6, 0x06, 0x0f, 0x3f, 0xf0, 0x6a, 0x79, 0x3f, 0x06, 0x7b, 0x89, 0x3f, 0xc4, 0xc8, 0x0f, 0xbe, 0x2c, 0xa2, 0x4b, 0x3e, 0x88, 0x9c, 0xd3, 0x3c, 0xe1, 0x9e, 0x45, 0x3e, 0x5c, 0x8f, 0x5b, 0xbe, 0x3e, 0x63, 0xc5, 0xbe, 0x10, 0x32, 0x99, 0xbf, 0x2b, 0xe8, 0xbc, 0xbe, 0x1d, 0xaf, 0x93, 0x3f, 0x32, 0x36, 0xbf, 0x3e, 0xb9, 0xb2, 0x65, 0xbe, 0x9d, 0x60, 0x01, 0xbf, 0xc1, 0x19, 0xed, 0x3e, 0x3e, 0x9e, 0x44, 0xbf, 0x5a, 0xcc, 0x15, 0xbe, 0x69, 0x05, 0x81, 0x3e, 0x13, 0x1c, 0x80, 0x3f, 0xf4, 0xf4, 0xa4, 0x3f, 0xdf, 0xc7, 0xe4, 0xbc, 0xf9, 0xf4, 0xf9, 0x3d, 0xf7, 0x08, 0x7b, 0x3f, 0x97, 0xc0, 0xc0, 0x3f, 0x20, 0xd0, 0x2e, 0x3f, 0xa2, 0x22, 0x1d, 0xbe, 0xf6, 0xc0, 0xdf, 0xbe, 0xc1, 0x4d, 0x85, 0x3e, 0x59, 0x06, 0x2f, 0x3f, 0x4d, 0xab, 0xae, 0x3e, 0x9c, 0x66, 0x11, 0xbe, 0x96, 0xee, 0xda, 0xbf, 0xf9, 0x3a, 0xd9, 0xbe, 0x4c, 0x7d, 0x41, 0x3f, 0x98, 0xf5, 0x43, 0x3f, 0x25, 0xdc, 0xfb, 0x3e, 0xb5, 0xa0, 0xd7, 0x3e, 0x78, 0x02, 0xbc, 0x3e, 0xe2, 0xb3, 0x8a, 0x3d, 0xbf, 0xad, 0x41, 0xbf, 0xee, 0xf8, 0x0a, 0xbe, 0x1e, 0xf1, 0xc7, 0xbe, 0x69, 0xc0, 0x9e, 0x3f, 0xc5, 0x8a, 0xd4, 0xbd, 0x37, 0x93, 0xe1, 0xbe, 0x7c, 0x07, 0x77, 0xbf, 0x98, 0xd3, 0x67, 0xbf, 0xb1, 0x3b, 0xd1, 0xbf, 0xe0, 0x9a, 0x66, 0xbf, 0x8a, 0x3b, 0xab, 0x3e, 0xfe, 0x17, 0xa4, 0x3d, 0x27, 0xd4, 0x95, 0x3f, 0x5f, 0xee, 0x1f, 0x3f, 0x1e, 0x10, 0x9b, 0x3d, 0xc6, 0x17, 0x80, 0x3f, 0x54, 0x59, 0x84, 0x3f, 0x0b, 0x96, 0x05, 0x3b, 0x42, 0xae, 0xa3, 0x3d, 0x1e, 0xd0, 0x75, 0xbe, 0x7e, 0xd8, 0x22, 0x3f, 0xeb, 0xc3, 0xe1, 0x3e, 0x67, 0x8e, 0x27, 0x3e, 0x32, 0x95, 0x82, 0xbd, 0x48, 0x33, 0x67, 0xbf, 0xf7, 0x9e, 0x0c, 0xbe, 0x1c, 0xe5, 0x00, 0x3f, 0x4c, 0x70, 0x68, 0x3e, 0x17, 0x7a, 0xaa, 0x3e, 0x38, 0xf6, 0x74, 0x3e, 0x4e, 0xc8, 0xc6, 0x3e, 0x57, 0x20, 0xbe, 0x3e, 0xf5, 0xc0, 0x18, 0x3b, 0xf2, 0x48, 0x9e, 0xbd, 0x03, 0x2a, 0x4c, 0xbf, 0xcc, 0x3d, 0x41, 0x3f, 0x14, 0xf3, 0xd5, 0x3e, 0xff, 0xa1, 0xaa, 0xbd, 0x06, 0xf6, 0xa3, 0xbd, 0x4b, 0x65, 0x87, 0xbf, 0x2e, 0xa8, 0x48, 0xbd, 0xf7, 0x93, 0x61, 0x3f, 0x73, 0x02, 0x3f, 0x3e, 0xd5, 0xfc, 0x42, 0xbf, 0x35, 0x18, 0x83, 0xbf, 0xa1, 0xd0, 0x0f, 0x3e, 0xca, 0x79, 0x88, 0xbf, 0xb1, 0xaf, 0x0b, 0x3f, 0x88, 0x39, 0x34, 0x3f, 0xf0, 0xca, 0xe1, 0xbe, 0x05, 0x1e, 0x93, 0xbe, 0x7e, 0xb8, 0x1d, 0x3f, 0xb5, 0x91, 0x1b, 0xbf, 0x9d, 0x87, 0x25, 0x3c, 0x82, 0x84, 0x09, 0xc0, 0xca, 0xef, 0x56, 0x3e, 0x66, 0x73, 0x0d, 0x3f, 0x69, 0x5e, 0x4f, 0xbe, 0xe8, 0xdd, 0x41, 0x3f, 0xfd, 0xe0, 0xee, 0x3d, 0x69, 0x99, 0xf8, 0x3d, 0x4e, 0x67, 0xb4, 0x3e, 0xc5, 0x2b, 0xaf, 0xbd, 0x40, 0xf0, 0xf2, 0x3e, 0x5b, 0x60, 0x1f, 0xbe, 0xbf, 0xce, 0x68, 0xbe, 0x66, 0x68, 0x88, 0xbf, 0x32, 0xdb, 0x23, 0x3f, 0x2e, 0x98, 0x0a, 0x3e, 0x0b, 0xb7, 0x04, 0x3e, 0xcd, 0x60, 0x55, 0x3e, 0x1e, 0x71, 0xc5, 0xbe, 0x37, 0xc9, 0x90, 0xbe, 0xed, 0x25, 0x08, 0x3f, 0x0a, 0xaa, 0x32, 0x3f, 0xe0, 0xbb, 0xfe, 0xbe, 0x19, 0x10, 0x5b, 0xbe, 0x98, 0xbe, 0xbd, 0x3e, 0xff, 0x18, 0x97, 0xbf, 0x31, 0x41, 0x8b, 0x3e, 0xcd, 0x8d, 0xe2, 0x3e, 0xee, 0x32, 0x77, 0xbf, 0xd5, 0xda, 0xbf, 0xbe, 0x1a, 0x2a, 0xba, 0x3d, 0x96, 0xb1, 0xa3, 0xbe, 0x3b, 0x15, 0xa0, 0x3e, 0x79, 0xb7, 0xe3, 0xbf, 0x5c, 0xf0, 0xa2, 0x3e, 0xa8, 0x49, 0x1c, 0x3e, 0x6e, 0xfe, 0xff, 0xff, 0x04, 0x00, 0x00, 0x00, 0xf0, 0x00, 0x00, 0x00, 0xd1, 0x79, 0xef, 0xbf, 0x52, 0x67, 0xe7, 0xbe, 0x34, 0x80, 0x61, 0x3e, 0x0f, 0x6f, 0x02, 0x3f, 0x9f, 0x2a, 0x30, 0xbd, 0xd4, 0x53, 0xfc, 0xbb, 0x43, 0xca, 0xdc, 0x3f, 0xd5, 0xe1, 0xbf, 0xbf, 0xec, 0xca, 0x13, 0x3f, 0xc8, 0x49, 0x38, 0xbd, 0xc5, 0xcf, 0xa9, 0x3f, 0xcd, 0x30, 0x8f, 0x3f, 0xca, 0xaa, 0x6c, 0xbe, 0xff, 0x8b, 0x22, 0xbf, 0x8e, 0xd4, 0x13, 0x3e, 0x95, 0x16, 0xc3, 0x3e, 0x57, 0xbf, 0xec, 0x3e, 0xba, 0x55, 0x85, 0x3f, 0x48, 0xc8, 0xcb, 0xbf, 0x30, 0x99, 0x25, 0x3f, 0xcb, 0x73, 0xd3, 0xbd, 0x4f, 0x27, 0xde, 0xbf, 0x94, 0x8c, 0xc3, 0xbe, 0xc0, 0xd2, 0x8b, 0xbf, 0x48, 0x38, 0x2a, 0xbc, 0x0b, 0x18, 0xd1, 0xbf, 0xf1, 0x7b, 0x54, 0xbe, 0x98, 0xd7, 0x2f, 0xbe, 0x93, 0xb2, 0x1a, 0xbf, 0xf9, 0xff, 0x4e, 0xbf, 0x0c, 0xa3, 0x5c, 0xc0, 0x9f, 0x64, 0xf7, 0x3c, 0x05, 0xa2, 0x7d, 0x3f, 0xa6, 0xb3, 0x5f, 0x3f, 0x99, 0xa1, 0x13, 0xc0, 0xbd, 0x65, 0xe4, 0xbf, 0x98, 0x90, 0x5c, 0x3f, 0x64, 0x88, 0x2c, 0x3f, 0x0c, 0x48, 0xe6, 0xbd, 0xe7, 0xc3, 0xf0, 0xbe, 0x3e, 0x44, 0x61, 0xbe, 0xd9, 0x76, 0x4d, 0xbf, 0x1d, 0x14, 0x01, 0xbf, 0x44, 0x63, 0xd9, 0xbe, 0x87, 0xf3, 0x0c, 0xc0, 0x34, 0x70, 0x33, 0x3f, 0xbc, 0x0e, 0xa6, 0xbf, 0xd6, 0xf6, 0xd1, 0xbe, 0x74, 0x08, 0x63, 0x3e, 0xdb, 0x1b, 0x26, 0x3f, 0x23, 0x23, 0xf3, 0xbf, 0x6e, 0x5e, 0x29, 0xbf, 0x1f, 0x75, 0x00, 0xbf, 0x0a, 0x94, 0x4d, 0xbf, 0x4d, 0x40, 0xdc, 0x3e, 0x87, 0xca, 0xed, 0xbe, 0xbf, 0x4b, 0x8c, 0xbe, 0x78, 0xba, 0xd0, 0xbf, 0xcb, 0x0f, 0x06, 0xbf, 0x93, 0x7b, 0x45, 0xc0, 0x68, 0xfa, 0xff, 0xff, 0x6c, 0xfa, 0xff, 0xff, 0x0f, 0x00, 0x00, 0x00, 0x4d, 0x4c, 0x49, 0x52, 0x20, 0x43, 0x6f, 0x6e, 0x76, 0x65, 0x72, 0x74, 0x65, 0x64, 0x2e, 0x00, 0x01, 0x00, 0x00, 0x00, 0x14, 0x00, 0x00, 0x00, 0x00, 0x00, 0x0e, 0x00, 0x18, 0x00, 0x14, 0x00, 0x10, 0x00, 0x0c, 0x00, 0x08, 0x00, 0x04, 0x00, 0x0e, 0x00, 0x00, 0x00, 0x14, 0x00, 0x00, 0x00, 0x1c, 0x00, 0x00, 0x00, 0x24, 0x01, 0x00, 0x00, 0x28, 0x01, 0x00, 0x00, 0x2c, 0x01, 0x00, 0x00, 0x04, 0x00, 0x00, 0x00, 0x6d, 0x61, 0x69, 0x6e, 0x00, 0x00, 0x00, 0x00, 0x04, 0x00, 0x00, 0x00, 0xcc, 0x00, 0x00, 0x00, 0x84, 0x00, 0x00, 0x00, 0x50, 0x00, 0x00, 0x00, 0x14, 0x00, 0x00, 0x00, 0x00, 0x00, 0x0e, 0x00, 0x1a, 0x00, 0x14, 0x00, 0x10, 0x00, 0x0c, 0x00, 0x0b, 0x00, 0x04, 0x00, 0x0e, 0x00, 0x00, 0x00, 0x1c, 0x00, 0x00, 0x00, 0x00, 0x00, 0x00, 0x09, 0x1c, 0x00, 0x00, 0x00, 0x20, 0x00, 0x00, 0x00, 0x01, 0x00, 0x00, 0x00, 0x00, 0x00, 0x06, 0x00, 0x08, 0x00, 0x04, 0x00, 0x06, 0x00, 0x00, 0x00, 0x00, 0x00, 0x80, 0x3f, 0x01, 0x00, 0x00, 0x00, 0x0a, 0x00, 0x00, 0x00, 0x01, 0x00, 0x00, 0x00, 0x09, 0x00, 0x00, 0x00, 0x9a, 0xff, 0xff, 0xff, 0x10, 0x00, 0x00, 0x00, 0x00, 0x00, 0x00, 0x08, 0x0c, 0x00, 0x00, 0x00, 0x10, 0x00, 0x00, 0x00, 0x30, 0xfb, 0xff, 0xff, 0x01, 0x00, 0x00, 0x00, 0x09, 0x00, 0x00, 0x00, 0x03, 0x00, 0x00, 0x00, 0x08, 0x00, 0x00, 0x00, 0x01, 0x00, 0x00, 0x00, 0x03, 0x00, 0x00, 0x00, 0xca, 0xff, 0xff, 0xff, 0x10, 0x00, 0x00, 0x00, 0x00, 0x00, 0x00, 0x08, 0x10, 0x00, 0x00, 0x00, 0x14, 0x00, 0x00, 0x00, 0xba, 0xff, 0xff, 0xff, 0x00, 0x00, 0x00, 0x01, 0x01, 0x00, 0x00, 0x00, 0x08, 0x00, 0x00, 0x00, 0x03, 0x00, 0x00, 0x00, 0x07, 0x00, 0x00, 0x00, 0x02, 0x00, 0x00, 0x00, 0x04, 0x00, 0x00, 0x00, 0x00, 0x00, 0x0e, 0x00, 0x16, 0x00, 0x00, 0x00, 0x10, 0x00, 0x0c, 0x00, 0x0b, 0x00, 0x04, 0x00, 0x0e, 0x00, 0x00, 0x00, 0x18, 0x00, 0x00, 0x00, 0x00, 0x00, 0x00, 0x08, 0x18, 0x00, 0x00, 0x00, 0x1c, 0x00, 0x00, 0x00, 0x00, 0x00, 0x06, 0x00, 0x08, 0x00, 0x07, 0x00, 0x06, 0x00, 0x00, 0x00, 0x00, 0x00, 0x00, 0x01, 0x01, 0x00, 0x00, 0x00, 0x07, 0x00, 0x00, 0x00, 0x03, 0x00, 0x00, 0x00, 0x00, 0x00, 0x00, 0x00, 0x06, 0x00, 0x00, 0x00, 0x05, 0x00, 0x00, 0x00, 0x01, 0x00, 0x00, 0x00, 0x0a, 0x00, 0x00, 0x00, 0x01, 0x00, 0x00, 0x00, 0x00, 0x00, 0x00, 0x00, 0x0b, 0x00, 0x00, 0x00, 0xf8, 0x03, 0x00, 0x00, 0xa0, 0x03, 0x00, 0x00, 0x48, 0x03, 0x00, 0x00, 0x0c, 0x03, 0x00, 0x00, 0xd0, 0x02, 0x00, 0x00, 0x74, 0x02, 0x00, 0x00, 0x20, 0x02, 0x00, 0x00, 0x80, 0x01, 0x00, 0x00, 0xe0, 0x00, 0x00, 0x00, 0x60, 0x00, 0x00, 0x00, 0x04, 0x00, 0x00, 0x00, 0x4a, 0xfc, 0xff, 0xff, 0x00, 0x00, 0x00, 0x01, 0x14, 0x00, 0x00, 0x00, 0x1c, 0x00, 0x00, 0x00, 0x1c, 0x00, 0x00, 0x00, 0x0b, 0x00, 0x00, 0x00, 0x34, 0x00, 0x00, 0x00, 0x02, 0x00, 0x00, 0x00, 0xff, 0xff, 0xff, 0xff, 0x05, 0x00, 0x00, 0x00, 0x34, 0xfc, 0xff, 0xff, 0x1b, 0x00, 0x00, 0x00, 0x53, 0x74, 0x61, 0x74, 0x65, 0x66, 0x75, 0x6c, 0x50, 0x61, 0x72, 0x74, 0x69, 0x74, 0x69, 0x6f, 0x6e, 0x65, 0x64, 0x43, 0x61, 0x6c, 0x6c, 0x5f, 0x31, 0x3a, 0x30, 0x00, 0x02, 0x00, 0x00, 0x00, 0x01, 0x00, 0x00, 0x00, 0x05, 0x00, 0x00, 0x00, 0xa2, 0xfc, 0xff, 0xff, 0x00, 0x00, 0x00, 0x01, 0x14, 0x00, 0x00, 0x00, 0x1c, 0x00, 0x00, 0x00, 0x1c, 0x00, 0x00, 0x00, 0x0a, 0x00, 0x00, 0x00, 0x58, 0x00, 0x00, 0x00, 0x02, 0x00, 0x00, 0x00, 0xff, 0xff, 0xff, 0xff, 0x05, 0x00, 0x00, 0x00, 0x8c, 0xfc, 0xff, 0xff, 0x3e, 0x00, 0x00, 0x00, 0x73, 0x65, 0x71, 0x75, 0x65, 0x6e, 0x74, 0x69, 0x61, 0x6c, 0x5f, 0x38, 0x5f, 0x31, 0x2f, 0x64, 0x65, 0x6e, 0x73, 0x65, 0x5f, 0x32, 0x36, 0x5f, 0x31, 0x2f, 0x4d, 0x61, 0x74, 0x4d, 0x75, 0x6c, 0x3b, 0x73, 0x65, 0x71, 0x75, 0x65, 0x6e, 0x74, 0x69, 0x61, 0x6c, 0x5f, 0x38, 0x5f, 0x31, 0x2f, 0x64, 0x65, 0x6e, 0x73, 0x65, 0x5f, 0x32, 0x36, 0x5f, 0x31, 0x2f, 0x41, 0x64, 0x64, 0x00, 0x00, 0x02, 0x00, 0x00, 0x00, 0x01, 0x00, 0x00, 0x00, 0x05, 0x00, 0x00, 0x00, 0x1e, 0xfd, 0xff, 0xff, 0x00, 0x00, 0x00, 0x01, 0x14, 0x00, 0x00, 0x00, 0x1c, 0x00, 0x00, 0x00, 0x1c, 0x00, 0x00, 0x00, 0x09, 0x00, 0x00, 0x00, 0x78, 0x00, 0x00, 0x00, 0x02, 0x00, 0x00, 0x00, 0xff, 0xff, 0xff, 0xff, 0x0c, 0x00, 0x00, 0x00, 0x08, 0xfd, 0xff, 0xff, 0x5d, 0x00, 0x00, 0x00, 0x73, 0x65, 0x71, 0x75, 0x65, 0x6e, 0x74, 0x69, 0x61, 0x6c, 0x5f, 0x38, 0x5f, 0x31, 0x2f, 0x64, 0x65, 0x6e, 0x73, 0x65, 0x5f, 0x32, 0x35, 0x5f, 0x31, 0x2f, 0x4d, 0x61, 0x74, 0x4d, 0x75, 0x6c, 0x3b, 0x73, 0x65, 0x71, 0x75, 0x65, 0x6e, 0x74, 0x69, 0x61, 0x6c, 0x5f, 0x38, 0x5f, 0x31, 0x2f, 0x64, 0x65, 0x6e, 0x73, 0x65, 0x5f, 0x32, 0x35, 0x5f, 0x31, 0x2f, 0x52, 0x65, 0x6c, 0x75, 0x3b, 0x73, 0x65, 0x71, 0x75, 0x65, 0x6e, 0x74, 0x69, 0x61, 0x6c, 0x5f, 0x38, 0x5f, 0x31, 0x2f, 0x64, 0x65, 0x6e, 0x73, 0x65, 0x5f, 0x32, 0x35, 0x5f, 0x31, 0x2f, 0x41, 0x64, 0x64, 0x00, 0x00, 0x00, 0x02, 0x00, 0x00, 0x00, 0x01, 0x00, 0x00, 0x00, 0x0c, 0x00, 0x00, 0x00, 0xba, 0xfd, 0xff, 0xff, 0x00, 0x00, 0x00, 0x01, 0x14, 0x00, 0x00, 0x00, 0x1c, 0x00, 0x00, 0x00, 0x1c, 0x00, 0x00, 0x00, 0x08, 0x00, 0x00, 0x00, 0x78, 0x00, 0x00, 0x00, 0x02, 0x00, 0x00, 0x00, 0xff, 0xff, 0xff, 0xff, 0x20, 0x00, 0x00, 0x00, 0xa4, 0xfd, 0xff, 0xff, 0x5d, 0x00, 0x00, 0x00, 0x73, 0x65, 0x71, 0x75, 0x65, 0x6e, 0x74, 0x69, 0x61, 0x6c, 0x5f, 0x38, 0x5f, 0x31, 0x2f, 0x64, 0x65, 0x6e, 0x73, 0x65, 0x5f, 0x32, 0x34, 0x5f, 0x31, 0x2f, 0x4d, 0x61, 0x74, 0x4d, 0x75, 0x6c, 0x3b, 0x73, 0x65, 0x71, 0x75, 0x65, 0x6e, 0x74, 0x69, 0x61, 0x6c, 0x5f, 0x38, 0x5f, 0x31, 0x2f, 0x64, 0x65, 0x6e, 0x73, 0x65, 0x5f, 0x32, 0x34, 0x5f, 0x31, 0x2f, 0x52, 0x65, 0x6c, 0x75, 0x3b, 0x73, 0x65, 0x71, 0x75, 0x65, 0x6e, 0x74, 0x69, 0x61, 0x6c, 0x5f, 0x38, 0x5f, 0x31, 0x2f, 0x64, 0x65, 0x6e, 0x73, 0x65, 0x5f, 0x32, 0x34, 0x5f, 0x31, 0x2f, 0x41, 0x64, 0x64, 0x00, 0x00, 0x00, 0x02, 0x00, 0x00, 0x00, 0x01, 0x00, 0x00, 0x00, 0x20, 0x00, 0x00, 0x00, 0xaa, 0xfe, 0xff, 0xff, 0x00, 0x00, 0x00, 0x01, 0x10, 0x00, 0x00, 0x00, 0x10, 0x00, 0x00, 0x00, 0x07, 0x00, 0x00, 0x00, 0x30, 0x00, 0x00, 0x00, 0x30, 0xfe, 0xff, 0xff, 0x20, 0x00, 0x00, 0x00, 0x73, 0x65, 0x71, 0x75, 0x65, 0x6e, 0x74, 0x69, 0x61, 0x6c, 0x5f, 0x38, 0x5f, 0x31, 0x2f, 0x64, 0x65, 0x6e, 0x73, 0x65, 0x5f, 0x32, 0x34, 0x5f, 0x31, 0x2f, 0x4d, 0x61, 0x74, 0x4d, 0x75, 0x6c, 0x00, 0x00, 0x00, 0x00, 0x02, 0x00, 0x00, 0x00, 0x20, 0x00, 0x00, 0x00, 0x20, 0x00, 0x00, 0x00, 0xfa, 0xfe, 0xff, 0xff, 0x00, 0x00, 0x00, 0x01, 0x10, 0x00, 0x00, 0x00, 0x10, 0x00, 0x00, 0x00, 0x06, 0x00, 0x00, 0x00, 0x3c, 0x00, 0x00, 0x00, 0x80, 0xfe, 0xff, 0xff, 0x2c, 0x00, 0x00, 0x00, 0x73, 0x65, 0x71, 0x75, 0x65, 0x6e, 0x74, 0x69, 0x61, 0x6c, 0x5f, 0x38, 0x5f, 0x31, 0x2f, 0x64, 0x65, 0x6e, 0x73, 0x65, 0x5f, 0x32, 0x34, 0x5f, 0x31, 0x2f, 0x41, 0x64, 0x64, 0x2f, 0x52, 0x65, 0x61, 0x64, 0x56, 0x61, 0x72, 0x69, 0x61, 0x62, 0x6c, 0x65, 0x4f, 0x70, 0x00, 0x00, 0x00, 0x00, 0x01, 0x00, 0x00, 0x00, 0x20, 0x00, 0x00, 0x00, 0x52, 0xff, 0xff, 0xff, 0x00, 0x00, 0x00, 0x01, 0x10, 0x00, 0x00, 0x00, 0x10, 0x00, 0x00, 0x00, 0x05, 0x00, 0x00, 0x00, 0x1c, 0x00, 0x00, 0x00, 0xd8, 0xfe, 0xff, 0xff, 0x0f, 0x00, 0x00, 0x00, 0x61, 0x72, 0x69, 0x74, 0x68, 0x2e, 0x63, 0x6f, 0x6e, 0x73, 0x74, 0x61, 0x6e, 0x74, 0x33, 0x00, 0x01, 0x00, 0x00, 0x00, 0x0c, 0x00, 0x00, 0x00, 0x8a, 0xff, 0xff, 0xff, 0x00, 0x00, 0x00, 0x01, 0x10, 0x00, 0x00, 0x00, 0x10, 0x00, 0x00, 0x00, 0x04, 0x00, 0x00, 0x00, 0x1c, 0x00, 0x00, 0x00, 0x10, 0xff, 0xff, 0xff, 0x0f, 0x00, 0x00, 0x00, 0x61, 0x72, 0x69, 0x74, 0x68, 0x2e, 0x63, 0x6f, 0x6e, 0x73, 0x74, 0x61, 0x6e, 0x74, 0x32, 0x00, 0x01, 0x00, 0x00, 0x00, 0x05, 0x00, 0x00, 0x00, 0xc2, 0xff, 0xff, 0xff, 0x00, 0x00, 0x00, 0x01, 0x10, 0x00, 0x00, 0x00, 0x10, 0x00, 0x00, 0x00, 0x03, 0x00, 0x00, 0x00, 0x1c, 0x00, 0x00, 0x00, 0x48, 0xff, 0xff, 0xff, 0x0f, 0x00, 0x00, 0x00, 0x61, 0x72, 0x69, 0x74, 0x68, 0x2e, 0x63, 0x6f, 0x6e, 0x73, 0x74, 0x61, 0x6e, 0x74, 0x31, 0x00, 0x02, 0x00, 0x00, 0x00, 0x0c, 0x00, 0x00, 0x00, 0x20, 0x00, 0x00, 0x00, 0x00, 0x00, 0x16, 0x00, 0x18, 0x00, 0x14, 0x00, 0x00, 0x00, 0x10, 0x00, 0x0c, 0x00, 0x08, 0x00, 0x00, 0x00, 0x00, 0x00, 0x00, 0x00, 0x07, 0x00, 0x16, 0x00, 0x00, 0x00, 0x00, 0x00, 0x00, 0x01, 0x10, 0x00, 0x00, 0x00, 0x10, 0x00, 0x00, 0x00, 0x02, 0x00, 0x00, 0x00, 0x1c, 0x00, 0x00, 0x00, 0x9c, 0xff, 0xff, 0xff, 0x0e, 0x00, 0x00, 0x00, 0x61, 0x72, 0x69, 0x74, 0x68, 0x2e, 0x63, 0x6f, 0x6e, 0x73, 0x74, 0x61, 0x6e, 0x74, 0x00, 0x00, 0x02, 0x00, 0x00, 0x00, 0x05, 0x00, 0x00, 0x00, 0x0c, 0x00, 0x00, 0x00, 0x00, 0x00, 0x16, 0x00, 0x1c, 0x00, 0x18, 0x00, 0x00, 0x00, 0x14, 0x00, 0x10, 0x00, 0x0c, 0x00, 0x00, 0x00, 0x00, 0x00, 0x08, 0x00, 0x07, 0x00, 0x16, 0x00, 0x00, 0x00, 0x00, 0x00, 0x00, 0x01, 0x14, 0x00, 0x00, 0x00, 0x20, 0x00, 0x00, 0x00, 0x20, 0x00, 0x00, 0x00, 0x01, 0x00, 0x00, 0x00, 0x3c, 0x00, 0x00, 0x00, 0x02, 0x00, 0x00, 0x00, 0xff, 0xff, 0xff, 0xff, 0x20, 0x00, 0x00, 0x00, 0x04, 0x00, 0x04, 0x00, 0x04, 0x00, 0x00, 0x00, 0x1f, 0x00, 0x00, 0x00, 0x73, 0x65, 0x72, 0x76, 0x69, 0x6e, 0x67, 0x5f, 0x64, 0x65, 0x66, 0x61, 0x75, 0x6c, 0x74, 0x5f, 0x69, 0x6e, 0x70, 0x75, 0x74, 0x5f, 0x6c, 0x61, 0x79, 0x65, 0x72, 0x5f, 0x38, 0x3a, 0x30, 0x00, 0x02, 0x00, 0x00, 0x00, 0x01, 0x00, 0x00, 0x00, 0x20, 0x00, 0x00, 0x00, 0x02, 0x00, 0x00, 0x00, 0x20, 0x00, 0x00, 0x00, 0x04, 0x00, 0x00, 0x00, 0xf4, 0xff, 0xff, 0xff, 0x19, 0x00, 0x00, 0x00, 0x00, 0x00, 0x00, 0x19, 0x0c, 0x00, 0x0c, 0x00, 0x0b, 0x00, 0x00, 0x00, 0x00, 0x00, 0x04, 0x00, 0x0c, 0x00, 0x00, 0x00, 0x09, 0x00, 0x00, 0x00, 0x00, 0x00, 0x00, 0x09 };
const unsigned int NN_model_len = 8168;
